#include "magic_wand_model_data.h"

// We need to keep the data array aligned on some architectures.
#ifdef __has_attribute
#define HAVE_ATTRIBUTE(x) __has_attribute(x)
#else
#define HAVE_ATTRIBUTE(x) 0
#endif
#if HAVE_ATTRIBUTE(aligned) || (defined(__GNUC__) && !defined(__clang__))
#define DATA_ALIGN_ATTRIBUTE __attribute__((aligned(4)))
#else
#define DATA_ALIGN_ATTRIBUTE
#endif

const unsigned char g_magic_wand_model_data[] DATA_ALIGN_ATTRIBUTE = {
  0x1c, 0x00, 0x00, 0x00, 0x54, 0x46, 0x4c, 0x33, 0x14, 0x00, 0x20, 0x00,
  0x04, 0x00, 0x08, 0x00, 0x0c, 0x00, 0x10, 0x00, 0x14, 0x00, 0x00, 0x00,
  0x18, 0x00, 0x1c, 0x00, 0x14, 0x00, 0x00, 0x00, 0x03, 0x00, 0x00, 0x00,
  0x18, 0x00, 0x00, 0x00, 0x2c, 0x00, 0x00, 0x00, 0xd8, 0x00, 0x00, 0x00,
  0x2c, 0x00, 0x00, 0x00, 0x80, 0x00, 0x00, 0x00, 0x78, 0x00, 0x00, 0x00,
  0x05, 0x00, 0x00, 0x00, 0x28, 0x07, 0x00, 0x00, 0x44, 0x06, 0x00, 0x00,
  0xbc, 0x03, 0x00, 0x00, 0xf8, 0x02, 0x00, 0x00, 0xac, 0x01, 0x00, 0x00,
  0x01, 0x00, 0x00, 0x00, 0xd0, 0x00, 0x00, 0x00, 0x14, 0x00, 0x00, 0x00,
  0xdc, 0x32, 0x00, 0x00, 0xd8, 0x32, 0x00, 0x00, 0xd0, 0x31, 0x00, 0x00,
  0x1c, 0x31, 0x00, 0x00, 0x74, 0x30, 0x00, 0x00, 0xfc, 0x2f, 0x00, 0x00,
  0x90, 0x2f, 0x00, 0x00, 0x40, 0x13, 0x00, 0x00, 0xec, 0x11, 0x00, 0x00,
  0x10, 0x10, 0x00, 0x00, 0xb4, 0x07, 0x00, 0x00, 0xb0, 0x32, 0x00, 0x00,
  0xac, 0x32, 0x00, 0x00, 0xa8, 0x32, 0x00, 0x00, 0xa4, 0x32, 0x00, 0x00,
  0xa0, 0x32, 0x00, 0x00, 0x9c, 0x32, 0x00, 0x00, 0x98, 0x32, 0x00, 0x00,
  0x94, 0x32, 0x00, 0x00, 0x3c, 0x00, 0x00, 0x00, 0x00, 0x00, 0x00, 0x00,
  0x01, 0x00, 0x00, 0x00, 0x0c, 0x00, 0x00, 0x00, 0x08, 0x00, 0x0c, 0x00,
  0x04, 0x00, 0x08, 0x00, 0x08, 0x00, 0x00, 0x00, 0x08, 0x00, 0x00, 0x00,
  0x13, 0x00, 0x00, 0x00, 0x13, 0x00, 0x00, 0x00, 0x6d, 0x69, 0x6e, 0x5f,
  0x72, 0x75, 0x6e, 0x74, 0x69, 0x6d, 0x65, 0x5f, 0x76, 0x65, 0x72, 0x73,
  0x69, 0x6f, 0x6e, 0x00, 0xb6, 0xce, 0xff, 0xff, 0x04, 0x00, 0x00, 0x00,
  0x10, 0x00, 0x00, 0x00, 0x31, 0x2e, 0x35, 0x2e, 0x30, 0x00, 0x00, 0x00,
  0x00, 0x00, 0x00, 0x00, 0x00, 0x00, 0x00, 0x00, 0x0f, 0x00, 0x00, 0x00,
  0x4d, 0x4c, 0x49, 0x52, 0x20, 0x43, 0x6f, 0x6e, 0x76, 0x65, 0x72, 0x74,
  0x65, 0x64, 0x2e, 0x00, 0x00, 0x00, 0x0e, 0x00, 0x18, 0x00, 0x04, 0x00,
  0x08, 0x00, 0x0c, 0x00, 0x10, 0x00, 0x14, 0x00, 0x0e, 0x00, 0x00, 0x00,
  0x14, 0x00, 0x00, 0x00, 0x5c, 0x00, 0x00, 0x00, 0x60, 0x00, 0x00, 0x00,
  0x64, 0x00, 0x00, 0x00, 0x84, 0x00, 0x00, 0x00, 0x12, 0x00, 0x00, 0x00,
  0x9c, 0x31, 0x00, 0x00, 0x2c, 0x31, 0x00, 0x00, 0x88, 0x30, 0x00, 0x00,
  0xe0, 0x2f, 0x00, 0x00, 0x38, 0x2f, 0x00, 0x00, 0xd4, 0x2e, 0x00, 0x00,
  0x6c, 0x2e, 0x00, 0x00, 0x18, 0x12, 0x00, 0x00, 0xbc, 0x10, 0x00, 0x00,
  0xe0, 0x0e, 0x00, 0x00, 0x0c, 0x06, 0x00, 0x00, 0x28, 0x05, 0x00, 0x00,
  0xe8, 0x03, 0x00, 0x00, 0x3c, 0x03, 0x00, 0x00, 0x98, 0x02, 0x00, 0x00,
  0xd4, 0x01, 0x00, 0x00, 0x10, 0x01, 0x00, 0x00, 0x84, 0x00, 0x00, 0x00,
  0x01, 0x00, 0x00, 0x00, 0x00, 0x00, 0x00, 0x00, 0x01, 0x00, 0x00, 0x00,
  0x11, 0x00, 0x00, 0x00, 0x08, 0x00, 0x00, 0x00, 0x74, 0x05, 0x00, 0x00,
  0x94, 0x04, 0x00, 0x00, 0x78, 0x03, 0x00, 0x00, 0xbc, 0x02, 0x00, 0x00,
  0x30, 0x02, 0x00, 0x00, 0x50, 0x01, 0x00, 0x00, 0xa8, 0x00, 0x00, 0x00,
  0x10, 0x00, 0x00, 0x00, 0x04, 0x00, 0x00, 0x00, 0x6d, 0x61, 0x69, 0x6e,
  0x00, 0x00, 0x00, 0x00, 0x7a, 0xff, 0xff, 0xff, 0x00, 0x00, 0x00, 0x09,
  0x04, 0x00, 0x00, 0x00, 0x1c, 0x00, 0x00, 0x00, 0x10, 0x00, 0x00, 0x00,
  0x04, 0x00, 0x00, 0x00, 0xb2, 0xcf, 0xff, 0xff, 0x00, 0x00, 0x80, 0x3f,
  0x01, 0x00, 0x00, 0x00, 0x11, 0x00, 0x00, 0x00, 0x01, 0x00, 0x00, 0x00,
  0x10, 0x00, 0x00, 0x00, 0xa0, 0xfa, 0xff, 0xff, 0x19, 0x00, 0x00, 0x00,
  0x00, 0x00, 0x00, 0x19, 0x01, 0x00, 0x00, 0x00, 0x40, 0xcf, 0xff, 0xff,
  0x14, 0x00, 0x00, 0x00, 0x12, 0x00, 0x00, 0x00, 0x18, 0x00, 0x00, 0x00,
  0x30, 0x00, 0x00, 0x00, 0x20, 0x00, 0x00, 0x00, 0x02, 0x00, 0x00, 0x00,
  0x01, 0x00, 0x00, 0x00, 0x04, 0x00, 0x00, 0x00, 0x08, 0x00, 0x00, 0x00,
  0x49, 0x64, 0x65, 0x6e, 0x74, 0x69, 0x74, 0x79, 0x00, 0x00, 0x00, 0x00,
  0x02, 0x00, 0x00, 0x00, 0xff, 0xff, 0xff, 0xff, 0x04, 0x00, 0x00, 0x00,
  0x24, 0xd0, 0xff, 0xff, 0x00, 0x00, 0x0e, 0x00, 0x18, 0x00, 0x08, 0x00,
  0x0c, 0x00, 0x10, 0x00, 0x07, 0x00, 0x14, 0x00, 0x0e, 0x00, 0x00, 0x00,
  0x00, 0x00, 0x00, 0x08, 0x03, 0x00, 0x00, 0x00, 0x18, 0x00, 0x00, 0x00,
  0x0c, 0x00, 0x00, 0x00, 0x04, 0x00, 0x00, 0x00, 0x40, 0xcf, 0xff, 0xff,
  0x01, 0x00, 0x00, 0x00, 0x10, 0x00, 0x00, 0x00, 0x03, 0x00, 0x00, 0x00,
  0x0f, 0x00, 0x00, 0x00, 0x07, 0x00, 0x00, 0x00, 0x04, 0x00, 0x00, 0x00,
  0xc8, 0xcf, 0xff, 0xff, 0x14, 0x00, 0x00, 0x00, 0x11, 0x00, 0x00, 0x00,
  0x18, 0x00, 0x00, 0x00, 0x5c, 0x00, 0x00, 0x00, 0x4c, 0x00, 0x00, 0x00,
  0x02, 0x00, 0x00, 0x00, 0x01, 0x00, 0x00, 0x00, 0x04, 0x00, 0x00, 0x00,
  0x34, 0x00, 0x00, 0x00, 0x73, 0x65, 0x71, 0x75, 0x65, 0x6e, 0x74, 0x69,
  0x61, 0x6c, 0x2f, 0x64, 0x65, 0x6e, 0x73, 0x65, 0x5f, 0x31, 0x2f, 0x4d,
  0x61, 0x74, 0x4d, 0x75, 0x6c, 0x3b, 0x73, 0x65, 0x71, 0x75, 0x65, 0x6e,
  0x74, 0x69, 0x61, 0x6c, 0x2f, 0x64, 0x65, 0x6e, 0x73, 0x65, 0x5f, 0x31,
  0x2f, 0x42, 0x69, 0x61, 0x73, 0x41, 0x64, 0x64, 0x00, 0x00, 0x00, 0x00,
  0x02, 0x00, 0x00, 0x00, 0xff, 0xff, 0xff, 0xff, 0x04, 0x00, 0x00, 0x00,
  0xc8, 0xcf, 0xff, 0xff, 0xda, 0xfc, 0xff, 0xff, 0x00, 0x00, 0x00, 0x08,
  0x03, 0x00, 0x00, 0x00, 0x24, 0x00, 0x00, 0x00, 0x18, 0x00, 0x00, 0x00,
  0x0c, 0x00, 0x00, 0x00, 0x00, 0x00, 0x06, 0x00, 0x08, 0x00, 0x07, 0x00,
  0x06, 0x00, 0x00, 0x00, 0x00, 0x00, 0x00, 0x01, 0x01, 0x00, 0x00, 0x00,
  0x0f, 0x00, 0x00, 0x00, 0x03, 0x00, 0x00, 0x00, 0x0e, 0x00, 0x00, 0x00,
  0x06, 0x00, 0x00, 0x00, 0x03, 0x00, 0x00, 0x00, 0xe8, 0xfb, 0xff, 0xff,
  0x09, 0x00, 0x00, 0x00, 0x00, 0x00, 0x00, 0x09, 0x01, 0x00, 0x00, 0x00,
  0x88, 0xd0, 0xff, 0xff, 0x14, 0x00, 0x00, 0x00, 0x10, 0x00, 0x00, 0x00,
  0x18, 0x00, 0x00, 0x00, 0x6c, 0x00, 0x00, 0x00, 0x5c, 0x00, 0x00, 0x00,
  0x02, 0x00, 0x00, 0x00, 0x01, 0x00, 0x00, 0x00, 0x10, 0x00, 0x00, 0x00,
  0x46, 0x00, 0x00, 0x00, 0x73, 0x65, 0x71, 0x75, 0x65, 0x6e, 0x74, 0x69,
  0x61, 0x6c, 0x2f, 0x64, 0x65, 0x6e, 0x73, 0x65, 0x2f, 0x4d, 0x61, 0x74,
  0x4d, 0x75, 0x6c, 0x3b, 0x73, 0x65, 0x71, 0x75, 0x65, 0x6e, 0x74, 0x69,
  0x61, 0x6c, 0x2f, 0x64, 0x65, 0x6e, 0x73, 0x65, 0x2f, 0x52, 0x65, 0x6c,
  0x75, 0x3b, 0x73, 0x65, 0x71, 0x75, 0x65, 0x6e, 0x74, 0x69, 0x61, 0x6c,
  0x2f, 0x64, 0x65, 0x6e, 0x73, 0x65, 0x2f, 0x42, 0x69, 0x61, 0x73, 0x41,
  0x64, 0x64, 0x00, 0x00, 0x02, 0x00, 0x00, 0x00, 0xff, 0xff, 0xff, 0xff,
  0x10, 0x00, 0x00, 0x00, 0xa8, 0xd1, 0xff, 0xff, 0x00, 0x00, 0x0a, 0x00,
  0x10, 0x00, 0x04, 0x00, 0x08, 0x00, 0x0c, 0x00, 0x0a, 0x00, 0x00, 0x00,
  0x02, 0x00, 0x00, 0x00, 0x10, 0x00, 0x00, 0x00, 0x04, 0x00, 0x00, 0x00,
  0x01, 0x00, 0x00, 0x00, 0x0e, 0x00, 0x00, 0x00, 0x02, 0x00, 0x00, 0x00,
  0x0d, 0x00, 0x00, 0x00, 0x05, 0x00, 0x00, 0x00, 0xa8, 0xfc, 0xff, 0xff,
  0x16, 0x00, 0x00, 0x00, 0x00, 0x00, 0x00, 0x16, 0x01, 0x00, 0x00, 0x00,
  0x48, 0xd1, 0xff, 0xff, 0x14, 0x00, 0x00, 0x00, 0x0f, 0x00, 0x00, 0x00,
  0x18, 0x00, 0x00, 0x00, 0x40, 0x00, 0x00, 0x00, 0x30, 0x00, 0x00, 0x00,
  0x02, 0x00, 0x00, 0x00, 0x01, 0x00, 0x00, 0x00, 0x70, 0x00, 0x00, 0x00,
  0x1a, 0x00, 0x00, 0x00, 0x73, 0x65, 0x71, 0x75, 0x65, 0x6e, 0x74, 0x69,
  0x61, 0x6c, 0x2f, 0x66, 0x6c, 0x61, 0x74, 0x74, 0x65, 0x6e, 0x2f, 0x52,
  0x65, 0x73, 0x68, 0x61, 0x70, 0x65, 0x00, 0x00, 0x02, 0x00, 0x00, 0x00,
  0xff, 0xff, 0xff, 0xff, 0x70, 0x00, 0x00, 0x00, 0x2c, 0xd1, 0xff, 0xff,
  0x3e, 0xfe, 0xff, 0xff, 0x00, 0x00, 0x00, 0x05, 0x01, 0x00, 0x00, 0x00,
  0x38, 0x00, 0x00, 0x00, 0x2c, 0x00, 0x00, 0x00, 0x14, 0x00, 0x00, 0x00,
  0x00, 0x00, 0x0e, 0x00, 0x14, 0x00, 0x00, 0x00, 0x10, 0x00, 0x0c, 0x00,
  0x08, 0x00, 0x04, 0x00, 0x0e, 0x00, 0x00, 0x00, 0x03, 0x00, 0x00, 0x00,
  0x01, 0x00, 0x00, 0x00, 0x03, 0x00, 0x00, 0x00, 0x01, 0x00, 0x00, 0x00,
  0x01, 0x00, 0x00, 0x00, 0x0d, 0x00, 0x00, 0x00, 0x01, 0x00, 0x00, 0x00,
  0x0c, 0x00, 0x00, 0x00, 0xe8, 0xd1, 0xff, 0xff, 0x14, 0x00, 0x00, 0x00,
  0x0e, 0x00, 0x00, 0x00, 0x20, 0x00, 0x00, 0x00, 0x58, 0x00, 0x00, 0x00,
  0x40, 0x00, 0x00, 0x00, 0x04, 0x00, 0x00, 0x00, 0x01, 0x00, 0x00, 0x00,
  0x07, 0x00, 0x00, 0x00, 0x01, 0x00, 0x00, 0x00, 0x10, 0x00, 0x00, 0x00,
  0x22, 0x00, 0x00, 0x00, 0x73, 0x65, 0x71, 0x75, 0x65, 0x6e, 0x74, 0x69,
  0x61, 0x6c, 0x2f, 0x6d, 0x61, 0x78, 0x5f, 0x70, 0x6f, 0x6f, 0x6c, 0x69,
  0x6e, 0x67, 0x32, 0x64, 0x5f, 0x31, 0x2f, 0x4d, 0x61, 0x78, 0x50, 0x6f,
  0x6f, 0x6c, 0x00, 0x00, 0x04, 0x00, 0x00, 0x00, 0xff, 0xff, 0xff, 0xff,
  0x07, 0x00, 0x00, 0x00, 0x01, 0x00, 0x00, 0x00, 0x10, 0x00, 0x00, 0x00,
  0xe4, 0xd1, 0xff, 0xff, 0x1a, 0xfe, 0xff, 0xff, 0x00, 0x00, 0x00, 0x01,
  0x24, 0x00, 0x00, 0x00, 0x18, 0x00, 0x00, 0x00, 0x04, 0x00, 0x00, 0x00,
  0x0c, 0xfe, 0xff, 0xff, 0x01, 0x00, 0x00, 0x00, 0x01, 0x00, 0x00, 0x00,
  0x00, 0x00, 0x00, 0x01, 0x01, 0x00, 0x00, 0x00, 0x0c, 0x00, 0x00, 0x00,
  0x03, 0x00, 0x00, 0x00, 0x0b, 0x00, 0x00, 0x00, 0x09, 0x00, 0x00, 0x00,
  0x02, 0x00, 0x00, 0x00, 0x90, 0xd2, 0xff, 0xff, 0x14, 0x00, 0x00, 0x00,
  0x0d, 0x00, 0x00, 0x00, 0x20, 0x00, 0x00, 0x00, 0xb8, 0x00, 0x00, 0x00,
  0xa0, 0x00, 0x00, 0x00, 0x04, 0x00, 0x00, 0x00, 0x01, 0x00, 0x00, 0x00,
  0x15, 0x00, 0x00, 0x00, 0x01, 0x00, 0x00, 0x00, 0x10, 0x00, 0x00, 0x00,
  0x83, 0x00, 0x00, 0x00, 0x73, 0x65, 0x71, 0x75, 0x65, 0x6e, 0x74, 0x69,
  0x61, 0x6c, 0x2f, 0x63, 0x6f, 0x6e, 0x76, 0x32, 0x64, 0x5f, 0x31, 0x2f,
  0x52, 0x65, 0x6c, 0x75, 0x3b, 0x73, 0x65, 0x71, 0x75, 0x65, 0x6e, 0x74,
  0x69, 0x61, 0x6c, 0x2f, 0x63, 0x6f, 0x6e, 0x76, 0x32, 0x64, 0x5f, 0x31,
  0x2f, 0x42, 0x69, 0x61, 0x73, 0x41, 0x64, 0x64, 0x3b, 0x73, 0x65, 0x71,
  0x75, 0x65, 0x6e, 0x74, 0x69, 0x61, 0x6c, 0x2f, 0x63, 0x6f, 0x6e, 0x76,
  0x32, 0x64, 0x5f, 0x31, 0x2f, 0x43, 0x6f, 0x6e, 0x76, 0x32, 0x44, 0x3b,
  0x73, 0x65, 0x71, 0x75, 0x65, 0x6e, 0x74, 0x69, 0x61, 0x6c, 0x2f, 0x63,
  0x6f, 0x6e, 0x76, 0x32, 0x64, 0x5f, 0x31, 0x2f, 0x42, 0x69, 0x61, 0x73,
  0x41, 0x64, 0x64, 0x2f, 0x52, 0x65, 0x61, 0x64, 0x56, 0x61, 0x72, 0x69,
  0x61, 0x62, 0x6c, 0x65, 0x4f, 0x70, 0x2f, 0x72, 0x65, 0x73, 0x6f, 0x75,
  0x72, 0x63, 0x65, 0x00, 0x04, 0x00, 0x00, 0x00, 0xff, 0xff, 0xff, 0xff,
  0x15, 0x00, 0x00, 0x00, 0x01, 0x00, 0x00, 0x00, 0x10, 0x00, 0x00, 0x00,
  0xfc, 0xd3, 0xff, 0xff, 0x00, 0x00, 0x0e, 0x00, 0x1a, 0x00, 0x08, 0x00,
  0x0c, 0x00, 0x10, 0x00, 0x07, 0x00, 0x14, 0x00, 0x0e, 0x00, 0x00, 0x00,
  0x00, 0x00, 0x00, 0x05, 0x01, 0x00, 0x00, 0x00, 0x3c, 0x00, 0x00, 0x00,
  0x30, 0x00, 0x00, 0x00, 0x14, 0x00, 0x00, 0x00, 0x00, 0x00, 0x0e, 0x00,
  0x18, 0x00, 0x17, 0x00, 0x10, 0x00, 0x0c, 0x00, 0x08, 0x00, 0x04, 0x00,
  0x0e, 0x00, 0x00, 0x00, 0x03, 0x00, 0x00, 0x00, 0x03, 0x00, 0x00, 0x00,
  0x03, 0x00, 0x00, 0x00, 0x03, 0x00, 0x00, 0x00, 0x00, 0x00, 0x00, 0x01,
  0x01, 0x00, 0x00, 0x00, 0x0b, 0x00, 0x00, 0x00, 0x01, 0x00, 0x00, 0x00,
  0x0a, 0x00, 0x00, 0x00, 0x2c, 0xff, 0xff, 0xff, 0x11, 0x00, 0x00, 0x00,
  0x00, 0x00, 0x00, 0x11, 0x01, 0x00, 0x00, 0x00, 0xcc, 0xd3, 0xff, 0xff,
  0x14, 0x00, 0x00, 0x00, 0x0c, 0x00, 0x00, 0x00, 0x20, 0x00, 0x00, 0x00,
  0x58, 0x00, 0x00, 0x00, 0x40, 0x00, 0x00, 0x00, 0x04, 0x00, 0x00, 0x00,
  0x01, 0x00, 0x00, 0x00, 0x15, 0x00, 0x00, 0x00, 0x01, 0x00, 0x00, 0x00,
  0x08, 0x00, 0x00, 0x00, 0x20, 0x00, 0x00, 0x00, 0x73, 0x65, 0x71, 0x75,
  0x65, 0x6e, 0x74, 0x69, 0x61, 0x6c, 0x2f, 0x6d, 0x61, 0x78, 0x5f, 0x70,
  0x6f, 0x6f, 0x6c, 0x69, 0x6e, 0x67, 0x32, 0x64, 0x2f, 0x4d, 0x61, 0x78,
  0x50, 0x6f, 0x6f, 0x6c, 0x00, 0x00, 0x00, 0x00, 0x04, 0x00, 0x00, 0x00,
  0xff, 0xff, 0xff, 0xff, 0x15, 0x00, 0x00, 0x00, 0x01, 0x00, 0x00, 0x00,
  0x08, 0x00, 0x00, 0x00, 0xd8, 0xd4, 0xff, 0xff, 0x00, 0x00, 0x0e, 0x00,
  0x14, 0x00, 0x00, 0x00, 0x08, 0x00, 0x0c, 0x00, 0x07, 0x00, 0x10, 0x00,
  0x0e, 0x00, 0x00, 0x00, 0x00, 0x00, 0x00, 0x01, 0x30, 0x00, 0x00, 0x00,
  0x24, 0x00, 0x00, 0x00, 0x10, 0x00, 0x00, 0x00, 0x0c, 0x00, 0x10, 0x00,
  0x00, 0x00, 0x04, 0x00, 0x08, 0x00, 0x0f, 0x00, 0x0c, 0x00, 0x00, 0x00,
  0x01, 0x00, 0x00, 0x00, 0x01, 0x00, 0x00, 0x00, 0x00, 0x00, 0x00, 0x01,
  0x01, 0x00, 0x00, 0x00, 0x0a, 0x00, 0x00, 0x00, 0x03, 0x00, 0x00, 0x00,
  0x00, 0x00, 0x00, 0x00, 0x08, 0x00, 0x00, 0x00, 0x01, 0x00, 0x00, 0x00,
  0x0c, 0x00, 0x10, 0x00, 0x0b, 0x00, 0x00, 0x00, 0x0c, 0x00, 0x04, 0x00,
  0x0c, 0x00, 0x00, 0x00, 0x03, 0x00, 0x00, 0x00, 0x00, 0x00, 0x00, 0x03,
  0x01, 0x00, 0x00, 0x00, 0xac, 0xd4, 0xff, 0xff, 0x14, 0x00, 0x00, 0x00,
  0x0b, 0x00, 0x00, 0x00, 0x20, 0x00, 0x00, 0x00, 0xb0, 0x00, 0x00, 0x00,
  0x98, 0x00, 0x00, 0x00, 0x04, 0x00, 0x00, 0x00, 0x01, 0x00, 0x00, 0x00,
  0x40, 0x00, 0x00, 0x00, 0x03, 0x00, 0x00, 0x00, 0x08, 0x00, 0x00, 0x00,
  0x7b, 0x00, 0x00, 0x00, 0x73, 0x65, 0x71, 0x75, 0x65, 0x6e, 0x74, 0x69,
  0x61, 0x6c, 0x2f, 0x63, 0x6f, 0x6e, 0x76, 0x32, 0x64, 0x2f, 0x52, 0x65,
  0x6c, 0x75, 0x3b, 0x73, 0x65, 0x71, 0x75, 0x65, 0x6e, 0x74, 0x69, 0x61,
  0x6c, 0x2f, 0x63, 0x6f, 0x6e, 0x76, 0x32, 0x64, 0x2f, 0x42, 0x69, 0x61,
  0x73, 0x41, 0x64, 0x64, 0x3b, 0x73, 0x65, 0x71, 0x75, 0x65, 0x6e, 0x74,
  0x69, 0x61, 0x6c, 0x2f, 0x63, 0x6f, 0x6e, 0x76, 0x32, 0x64, 0x2f, 0x43,
  0x6f, 0x6e, 0x76, 0x32, 0x44, 0x3b, 0x73, 0x65, 0x71, 0x75, 0x65, 0x6e,
  0x74, 0x69, 0x61, 0x6c, 0x2f, 0x63, 0x6f, 0x6e, 0x76, 0x32, 0x64, 0x2f,
  0x42, 0x69, 0x61, 0x73, 0x41, 0x64, 0x64, 0x2f, 0x52, 0x65, 0x61, 0x64,
  0x56, 0x61, 0x72, 0x69, 0x61, 0x62, 0x6c, 0x65, 0x4f, 0x70, 0x2f, 0x72,
  0x65, 0x73, 0x6f, 0x75, 0x72, 0x63, 0x65, 0x00, 0x04, 0x00, 0x00, 0x00,
  0xff, 0xff, 0xff, 0xff, 0x40, 0x00, 0x00, 0x00, 0x03, 0x00, 0x00, 0x00,
  0x08, 0x00, 0x00, 0x00, 0x00, 0xd5, 0xff, 0xff, 0x0a, 0xd6, 0xff, 0xff,
  0x04, 0x00, 0x00, 0x00, 0x00, 0x08, 0x00, 0x00, 0xf0, 0x89, 0x67, 0xbc,
  0x0a, 0xae, 0x16, 0xbe, 0x50, 0xd1, 0x3a, 0xbf, 0x82, 0xc1, 0x1b, 0xbf,
  0xaa, 0x86, 0xbe, 0xbd, 0x3b, 0xa8, 0xe6, 0xbe, 0xb3, 0x44, 0x95, 0xbe,
  0x79, 0x39, 0xbc, 0xbe, 0x9f, 0x67, 0x73, 0x3c, 0x76, 0x4d, 0x33, 0xbd,
  0xdf, 0x0a, 0xe9, 0xbe, 0x7d, 0x1b, 0x09, 0x3d, 0x2d, 0xe3, 0xbf, 0x3d,
  0x8d, 0xa0, 0x85, 0xbe, 0x96, 0xac, 0x0a, 0xbe, 0x19, 0x3b, 0x2d, 0x3e,
  0x96, 0x64, 0x88, 0xbd, 0x09, 0xfd, 0xd4, 0xbd, 0xed, 0xfa, 0x06, 0x3e,
  0x19, 0x36, 0x8e, 0x3e, 0x71, 0xc1, 0x0d, 0xbe, 0xd8, 0x75, 0x68, 0x3e,
  0xb4, 0x4b, 0x75, 0xbe, 0x4a, 0x07, 0x46, 0xbe, 0x9f, 0xfd, 0xcf, 0x3d,
  0x9c, 0x4e, 0x27, 0xbe, 0x29, 0x84, 0xdf, 0xbd, 0x95, 0x6e, 0xbe, 0x3e,
  0x68, 0xe5, 0xf8, 0xbd, 0x92, 0x16, 0x23, 0x3e, 0xaf, 0x93, 0xad, 0x3d,
  0x10, 0x46, 0x68, 0x3e, 0xba, 0xc2, 0x5f, 0xbd, 0xe9, 0x8c, 0xc7, 0xbc,
  0xc9, 0xb1, 0x66, 0xbe, 0x45, 0x40, 0x63, 0xbd, 0x2c, 0xb2, 0x8d, 0xbc,
  0xc6, 0x7e, 0x85, 0xbe, 0xfe, 0xc7, 0xa6, 0xbd, 0xdf, 0x9e, 0x93, 0xbe,
  0xfb, 0xfa, 0x86, 0x3c, 0x2b, 0xb3, 0x9a, 0xbd, 0x75, 0x25, 0x99, 0xbe,
  0x1e, 0xa8, 0x6c, 0xbe, 0x3d, 0xd2, 0x8b, 0xbd, 0x3e, 0x84, 0x8c, 0x3e,
  0xdd, 0x03, 0x8c, 0xbd, 0x6f, 0xb1, 0xb4, 0xbd, 0xf7, 0x9f, 0x66, 0xbd,
  0x1e, 0x00, 0x3c, 0x3b, 0x03, 0x44, 0x84, 0xbe, 0x89, 0x9a, 0x30, 0xbe,
  0x16, 0x0e, 0x33, 0xbd, 0x86, 0x7e, 0x80, 0x3e, 0xf6, 0x73, 0x4e, 0x3e,
  0x3c, 0xb9, 0x66, 0x3e, 0x9e, 0xc7, 0xc1, 0xbd, 0xe3, 0x79, 0x14, 0x3e,
  0x4f, 0x56, 0x05, 0x3e, 0x19, 0x30, 0xe7, 0xbb, 0xfb, 0x30, 0x48, 0xbd,
  0xfe, 0x45, 0x76, 0x3d, 0x74, 0xc1, 0x70, 0x3d, 0x19, 0x0e, 0xa8, 0x3e,
  0x47, 0xb3, 0x56, 0xbe, 0x8a, 0x7a, 0xc0, 0x3d, 0xc7, 0x72, 0x76, 0xbd,
  0xf2, 0xae, 0x1e, 0x3b, 0x11, 0xc4, 0x2e, 0x3d, 0x4f, 0x37, 0x03, 0xbd,
  0x49, 0x6a, 0x01, 0x3c, 0x08, 0x72, 0xa7, 0xbd, 0x66, 0x5c, 0xbc, 0xbd,
  0xa0, 0xe9, 0xe0, 0x3d, 0x88, 0xf0, 0x56, 0xbc, 0xea, 0xce, 0x34, 0x3e,
  0xd0, 0x1a, 0xbc, 0x3c, 0x17, 0x8a, 0xfc, 0x3e, 0xbd, 0x63, 0x20, 0xbc,
  0xcb, 0x4b, 0xea, 0x3c, 0x22, 0xb7, 0xc0, 0xbe, 0x31, 0x69, 0x97, 0xbd,
  0x74, 0x0f, 0x30, 0x3d, 0x0a, 0x68, 0x6f, 0x3c, 0x5e, 0xb3, 0xb3, 0xbc,
  0x3e, 0x63, 0x54, 0x3d, 0x01, 0xae, 0x7f, 0xbe, 0x84, 0x5b, 0x90, 0x3d,
  0xbd, 0x17, 0x00, 0xbf, 0xf5, 0x20, 0x50, 0xbe, 0x33, 0x34, 0x0a, 0x3e,
  0x5f, 0x44, 0x00, 0x3e, 0x9b, 0xdf, 0x8b, 0xbd, 0x5c, 0xd6, 0xd8, 0xbe,
  0xa8, 0x30, 0xb4, 0xbe, 0x19, 0x5a, 0x43, 0x3e, 0xc4, 0x11, 0xbf, 0xbe,
  0x23, 0x5e, 0x35, 0xbe, 0xb5, 0x58, 0xd6, 0xbc, 0x7a, 0x42, 0x38, 0xbe,
  0x32, 0x6c, 0x89, 0xbd, 0xdd, 0x40, 0xff, 0xbe, 0x89, 0xc8, 0x8b, 0xbe,
  0x6e, 0x32, 0x2b, 0xbe, 0x43, 0x79, 0x8d, 0xbe, 0x43, 0x32, 0x71, 0x3d,
  0xad, 0xe8, 0x24, 0xbc, 0x32, 0x5d, 0xbb, 0xbd, 0xf8, 0xeb, 0x8f, 0xbc,
  0x43, 0xe9, 0x47, 0x3e, 0xe0, 0x1c, 0x11, 0xbd, 0x64, 0x29, 0x73, 0xbd,
  0x97, 0xd2, 0x05, 0xbe, 0xc1, 0x40, 0x36, 0x3d, 0x22, 0x48, 0x1b, 0x3e,
  0x23, 0x7a, 0x47, 0x3e, 0x87, 0x88, 0x79, 0xbc, 0x93, 0xe2, 0x88, 0x3d,
  0x18, 0x7c, 0x11, 0xbd, 0x88, 0x6d, 0x42, 0x3b, 0x09, 0x97, 0x6c, 0xbe,
  0x99, 0x79, 0xaa, 0x3e, 0x8f, 0x46, 0x41, 0xbd, 0xdb, 0x2e, 0x0b, 0xbc,
  0x2c, 0xc7, 0xc9, 0xbc, 0x8b, 0xf3, 0x88, 0x3e, 0x6f, 0x24, 0xd1, 0xbd,
  0xf1, 0xa9, 0x08, 0x3d, 0xe7, 0x5b, 0x0c, 0x3f, 0x6c, 0x34, 0x90, 0xbe,
  0x66, 0x06, 0xdd, 0x3c, 0x60, 0xf4, 0x9d, 0x3d, 0xfc, 0x35, 0x65, 0xbe,
  0xa4, 0xd1, 0x48, 0x3d, 0x28, 0x81, 0xaa, 0xbc, 0x72, 0x2b, 0xf6, 0xbb,
  0xc5, 0x26, 0x44, 0xbd, 0x7f, 0x57, 0x65, 0xbe, 0x3c, 0x92, 0x85, 0xbd,
  0x1e, 0x70, 0x03, 0x3b, 0x50, 0x34, 0x4a, 0xbe, 0xc0, 0x0e, 0x8c, 0x3e,
  0x6e, 0xb9, 0xc7, 0x3d, 0xaf, 0x48, 0x0d, 0xbc, 0x48, 0x2a, 0x8c, 0xbd,
  0xaf, 0x6b, 0x08, 0xbe, 0xb9, 0x42, 0x9e, 0xbc, 0x9e, 0xf8, 0x6e, 0x3d,
  0x66, 0xbd, 0x0c, 0xbe, 0xa9, 0x94, 0x57, 0x3d, 0x24, 0x4e, 0x96, 0xbd,
  0x9c, 0x16, 0x8f, 0x3e, 0x87, 0xcf, 0x20, 0xbd, 0x66, 0xad, 0x75, 0xbd,
  0x8a, 0xde, 0x82, 0xbd, 0x8a, 0x77, 0x12, 0xbc, 0x78, 0xe2, 0xde, 0xbd,
  0x44, 0x3c, 0xe5, 0x3d, 0xb6, 0x70, 0x7f, 0x3e, 0x1b, 0xf1, 0x28, 0xbc,
  0xb0, 0x0a, 0x1c, 0xbf, 0x54, 0x3f, 0x3c, 0xbe, 0x73, 0x23, 0x70, 0xbc,
  0x1c, 0xe1, 0x1b, 0xbf, 0x71, 0x4f, 0x95, 0xbd, 0x22, 0x0f, 0x65, 0xbf,
  0xaf, 0xb6, 0x20, 0xbf, 0xd6, 0x61, 0x40, 0xbf, 0x6a, 0x1d, 0xbd, 0xbd,
  0x13, 0xf2, 0xf3, 0x3b, 0x74, 0x7c, 0xa3, 0xbc, 0x8c, 0x29, 0x06, 0x3f,
  0x00, 0x5e, 0x09, 0xbd, 0xeb, 0x21, 0x83, 0x3d, 0x1e, 0xba, 0xb2, 0x3e,
  0x4e, 0x08, 0x50, 0xbc, 0xf3, 0x65, 0x41, 0xbe, 0x47, 0x35, 0xd2, 0x3d,
  0x17, 0xf1, 0x22, 0x3e, 0xfd, 0x8e, 0x25, 0x3e, 0x5d, 0x7f, 0x11, 0xbe,
  0x45, 0x68, 0x7b, 0x3e, 0x93, 0x76, 0xf4, 0xbe, 0x2c, 0xe3, 0x0e, 0xbd,
  0x2f, 0x86, 0x5b, 0xbd, 0xfd, 0x98, 0x9f, 0xbd, 0x69, 0x77, 0x2d, 0xbd,
  0xcd, 0x7b, 0xf8, 0xbd, 0xb6, 0x71, 0xcc, 0xbd, 0x9a, 0x71, 0xe5, 0xbe,
  0x05, 0x1a, 0x82, 0xbe, 0xe5, 0x84, 0x3b, 0xbf, 0xd8, 0xbd, 0xf3, 0xbe,
  0x1d, 0xe6, 0x5a, 0xbf, 0x9b, 0x70, 0x69, 0xbe, 0x86, 0x4a, 0xd4, 0xbf,
  0x34, 0x67, 0x85, 0xbe, 0x06, 0xc9, 0x36, 0xbf, 0x7b, 0xdc, 0x2b, 0xbf,
  0xe3, 0x07, 0x03, 0xbf, 0x8f, 0x4a, 0x4a, 0x3d, 0x4e, 0xaf, 0x50, 0x3d,
  0x35, 0xe6, 0x85, 0x3e, 0xdf, 0xfc, 0x18, 0xbe, 0xf6, 0x36, 0xa2, 0xbb,
  0x84, 0xf2, 0x98, 0xbe, 0x52, 0x80, 0x93, 0x3d, 0xea, 0x43, 0x3b, 0x3e,
  0x6d, 0xe1, 0x50, 0x3d, 0xfb, 0x3d, 0xf0, 0xbc, 0x47, 0x34, 0x82, 0xbd,
  0xf4, 0xad, 0x94, 0xbd, 0xb6, 0x8b, 0xe8, 0xbb, 0x54, 0x2a, 0x9c, 0xbe,
  0xfe, 0xe4, 0x08, 0xbe, 0x93, 0xdc, 0x06, 0xbe, 0x37, 0xc3, 0xb7, 0xbb,
  0x2e, 0xb4, 0xe5, 0xbc, 0xfa, 0xa7, 0x88, 0x3c, 0xfa, 0x2e, 0xdc, 0x3d,
  0x33, 0x2c, 0x28, 0xbc, 0x05, 0xb7, 0x67, 0x3d, 0x64, 0x47, 0x98, 0x3c,
  0x13, 0xd4, 0x9d, 0x3c, 0x63, 0x26, 0x20, 0xbd, 0xce, 0x8a, 0x96, 0xbe,
  0x60, 0x94, 0x09, 0x3f, 0xa6, 0xf8, 0x3a, 0xbd, 0xfa, 0x9e, 0xbe, 0xbd,
  0x9d, 0x12, 0xa4, 0x3e, 0x97, 0x31, 0x1a, 0xbe, 0x16, 0x63, 0x72, 0x3c,
  0x82, 0xf7, 0x8d, 0x3d, 0x35, 0x58, 0xa5, 0xbe, 0xcc, 0xb0, 0xc9, 0xbd,
  0x40, 0xe7, 0x0c, 0xbf, 0xea, 0x5b, 0x03, 0xbe, 0x20, 0xff, 0x6d, 0x3d,
  0x7e, 0xb7, 0x45, 0xbb, 0x9f, 0x61, 0x66, 0x3e, 0x54, 0xe6, 0x11, 0xba,
  0x53, 0x65, 0x81, 0xbd, 0x97, 0x89, 0xdb, 0xbd, 0xad, 0x80, 0x88, 0xbe,
  0x0b, 0x2e, 0xad, 0xbd, 0xda, 0x7a, 0xed, 0x3d, 0x48, 0x61, 0x8b, 0x3d,
  0xd6, 0xa8, 0x11, 0x3e, 0xe6, 0x53, 0xc2, 0xbc, 0x33, 0xca, 0x14, 0x3c,
  0x0e, 0xea, 0xa5, 0xbd, 0xbe, 0x35, 0x56, 0x3d, 0x05, 0xba, 0x3c, 0xbd,
  0xbf, 0x29, 0xf7, 0xbd, 0x8d, 0x7d, 0xc9, 0xbd, 0x42, 0x8b, 0x05, 0xbe,
  0x00, 0x30, 0x83, 0x3d, 0xe4, 0x5d, 0x44, 0x3e, 0xc2, 0xc8, 0x2b, 0xbd,
  0x57, 0xb3, 0x87, 0xbe, 0x92, 0x94, 0x2b, 0xbd, 0x6e, 0x56, 0xb5, 0xbe,
  0x19, 0x67, 0x13, 0xbe, 0x65, 0xb6, 0xde, 0xbe, 0xd3, 0x57, 0xe2, 0x3d,
  0x27, 0xc3, 0xf3, 0x3d, 0x0f, 0x35, 0xa0, 0x3d, 0xee, 0x67, 0x08, 0xbf,
  0xf9, 0x80, 0xf2, 0xbb, 0x8a, 0x93, 0x31, 0xbf, 0xc2, 0x15, 0x04, 0xbf,
  0xc3, 0x9c, 0x61, 0xbf, 0x28, 0x2a, 0xf3, 0x3c, 0x13, 0x2d, 0x1e, 0x3e,
  0x4b, 0x32, 0x10, 0xbc, 0x1d, 0x23, 0xc0, 0xbc, 0x04, 0x61, 0x38, 0x3e,
  0xa5, 0x48, 0x38, 0xbc, 0x8a, 0x78, 0x29, 0x3d, 0x5b, 0x77, 0x02, 0x3d,
  0x6b, 0x36, 0x85, 0xbe, 0xca, 0xdc, 0x9b, 0xbe, 0x10, 0x8c, 0xf8, 0x3c,
  0x92, 0xd5, 0x25, 0xbe, 0xdc, 0xa1, 0x31, 0xbe, 0x49, 0x8b, 0x55, 0x3e,
  0x25, 0xe1, 0x3e, 0xbf, 0xcb, 0xce, 0xd2, 0xbe, 0x0f, 0x7c, 0xcf, 0xbd,
  0xc6, 0x09, 0x76, 0xbe, 0x59, 0x55, 0x4f, 0xbe, 0x42, 0xb4, 0x0d, 0x3f,
  0x4f, 0xfe, 0xf5, 0xbe, 0x13, 0xe0, 0xfd, 0x3d, 0x6e, 0x16, 0x68, 0xbe,
  0x7e, 0xb1, 0x2b, 0x3e, 0xa2, 0xf4, 0x5f, 0x3c, 0x7f, 0x39, 0xb7, 0xbe,
  0x49, 0xd2, 0xbe, 0xbd, 0xa0, 0x03, 0x0f, 0x3e, 0xeb, 0xb7, 0x0b, 0xbf,
  0xc6, 0xeb, 0xd3, 0x3e, 0x60, 0x17, 0x0c, 0x3c, 0x0f, 0xfc, 0x1b, 0x3d,
  0xfc, 0x18, 0x3c, 0xbd, 0x5c, 0x6d, 0x1e, 0xbe, 0x7f, 0x57, 0x29, 0xbe,
  0x5a, 0x14, 0x82, 0x3d, 0x37, 0x45, 0xaf, 0xbe, 0xe5, 0x90, 0x7c, 0x3e,
  0x36, 0x1d, 0x1c, 0x3e, 0x06, 0xac, 0xf8, 0x3d, 0x11, 0x24, 0x07, 0xbd,
  0x13, 0xea, 0x75, 0xbc, 0x3f, 0xd4, 0xdc, 0xbd, 0x75, 0xce, 0x88, 0x3e,
  0x8f, 0xae, 0x1b, 0xbe, 0xe9, 0x31, 0x09, 0x3d, 0x37, 0xbf, 0xac, 0x3d,
  0x19, 0xe1, 0x2e, 0x3e, 0x22, 0x2f, 0x42, 0xbb, 0x3a, 0x76, 0x41, 0xbe,
  0x60, 0xce, 0xbf, 0xbe, 0xd2, 0x1a, 0x7b, 0xbe, 0xc6, 0xc7, 0xc9, 0xbb,
  0x4e, 0x3a, 0x9a, 0xbe, 0x78, 0x85, 0x5a, 0xbe, 0xb8, 0xd9, 0xac, 0xbe,
  0x26, 0x11, 0xe1, 0xbc, 0xa6, 0x9e, 0x66, 0xbe, 0xa7, 0xee, 0x41, 0x3c,
  0xf2, 0x24, 0xad, 0x3e, 0x0d, 0xf1, 0x0c, 0xbe, 0x5e, 0x4e, 0x78, 0x3e,
  0x68, 0x0d, 0x3f, 0xbf, 0x51, 0x61, 0x70, 0xbf, 0xd4, 0x83, 0xb6, 0x3d,
  0xab, 0xe6, 0xb9, 0xbe, 0x99, 0x57, 0x27, 0xbc, 0xab, 0x53, 0xd3, 0x3e,
  0x52, 0x8b, 0xa2, 0xbe, 0xae, 0xbe, 0x48, 0x3e, 0xf7, 0xf0, 0x19, 0x3b,
  0x0b, 0xa6, 0x6e, 0xbd, 0x5a, 0x35, 0xd1, 0xbd, 0xf6, 0x85, 0x0f, 0x3d,
  0xe8, 0x94, 0x86, 0xbe, 0xee, 0xf5, 0x63, 0xbe, 0x16, 0x63, 0x82, 0xbd,
  0xdc, 0x7a, 0x76, 0x3e, 0x07, 0xe0, 0x42, 0x3e, 0x46, 0x3d, 0x3a, 0x3e,
  0xcf, 0xc3, 0x93, 0xbe, 0xd7, 0xdb, 0x95, 0x3d, 0xa3, 0xd7, 0xb0, 0x3e,
  0x7d, 0xd5, 0x6b, 0xbc, 0xb7, 0xbc, 0x44, 0x3e, 0xc2, 0xd7, 0x1f, 0x3e,
  0x90, 0x3a, 0xf2, 0x3d, 0x6c, 0xdf, 0x20, 0x3e, 0x6f, 0x61, 0xcb, 0xbe,
  0x35, 0x14, 0x32, 0xbe, 0x5b, 0x3f, 0x67, 0xbd, 0x02, 0x35, 0x51, 0xbe,
  0x44, 0x78, 0xf6, 0xbd, 0x54, 0x09, 0x26, 0xbe, 0x89, 0x66, 0xf7, 0x3d,
  0xcf, 0xd1, 0x2a, 0x3e, 0x20, 0xd7, 0x1f, 0xbe, 0x14, 0x7d, 0xdd, 0xbe,
  0x88, 0xf6, 0x17, 0xbe, 0xe3, 0x44, 0x0d, 0xbe, 0x92, 0x36, 0x81, 0xbe,
  0x50, 0xad, 0x67, 0x3d, 0xf8, 0x9f, 0xf8, 0x3d, 0x5a, 0xc8, 0x6f, 0x3e,
  0x91, 0x04, 0x73, 0x3e, 0xd4, 0x5e, 0xfc, 0xbe, 0x80, 0x09, 0x2c, 0xbe,
  0x67, 0x89, 0xbf, 0xbe, 0x62, 0xdb, 0xa4, 0xbe, 0x59, 0xe5, 0x2d, 0xbd,
  0x8a, 0xfa, 0x14, 0xbe, 0x6b, 0x33, 0xc9, 0x3d, 0x1c, 0xb5, 0x6a, 0x3e,
  0x5b, 0x35, 0xab, 0xbd, 0x01, 0xa3, 0x8b, 0xbd, 0xf0, 0x8e, 0x04, 0x3e,
  0xfc, 0x77, 0xed, 0xbc, 0x39, 0xc4, 0xc3, 0x3e, 0x70, 0x4e, 0x93, 0x3e,
  0xa3, 0x8c, 0x40, 0x3e, 0xa1, 0xdf, 0x3c, 0xbe, 0x0b, 0x0d, 0xdc, 0x3d,
  0x12, 0x3f, 0x3b, 0x3d, 0x49, 0xd2, 0x94, 0x3d, 0xae, 0x1d, 0x0b, 0xbe,
  0x41, 0x48, 0x2b, 0xbe, 0xe1, 0xa6, 0xfd, 0xbe, 0x52, 0xa4, 0xba, 0xbe,
  0x2f, 0xfc, 0x23, 0xbe, 0x17, 0x97, 0xc3, 0xbd, 0x26, 0xe5, 0x02, 0x3d,
  0xbc, 0x05, 0x91, 0x3e, 0xe6, 0xce, 0xd1, 0xbd, 0x03, 0x6c, 0xe7, 0xbe,
  0x78, 0xcd, 0x06, 0xbf, 0x87, 0x8c, 0x52, 0xbf, 0xf7, 0x6e, 0x4a, 0xbe,
  0x1e, 0xa9, 0x06, 0xbe, 0x8c, 0x59, 0x25, 0xbe, 0xa7, 0x05, 0x90, 0x3e,
  0xb8, 0x26, 0xf6, 0xbd, 0x38, 0xe7, 0x1b, 0xbe, 0xfd, 0xb9, 0x38, 0xbe,
  0x67, 0x8d, 0xab, 0x3e, 0xd8, 0xe3, 0xf0, 0xbc, 0xc0, 0xfc, 0xf7, 0xb8,
  0x5d, 0x8f, 0x02, 0x3e, 0xcb, 0xcb, 0x97, 0xbd, 0x3c, 0xef, 0x09, 0x3e,
  0xcd, 0xcc, 0x34, 0xbe, 0x4e, 0x37, 0x46, 0xbc, 0x4b, 0xda, 0xaf, 0x3b,
  0x89, 0x03, 0x2b, 0xbe, 0x05, 0x6f, 0xb4, 0xbd, 0xf5, 0x4d, 0x09, 0x3e,
  0x31, 0xdc, 0x49, 0xbe, 0xd0, 0xb0, 0xf2, 0xbc, 0x59, 0xfb, 0xc8, 0xbe,
  0x73, 0x13, 0x0c, 0xbc, 0x75, 0x72, 0x3e, 0x3b, 0xe4, 0xd3, 0x2c, 0xbe,
  0x74, 0xb9, 0x08, 0xbd, 0x0e, 0xa6, 0x6d, 0xbc, 0x22, 0xc3, 0x85, 0xbd,
  0x1e, 0x73, 0x12, 0x3e, 0x45, 0x1d, 0xc8, 0x3e, 0x58, 0x90, 0xaf, 0xbc,
  0x46, 0x48, 0xbb, 0xbd, 0x5b, 0x69, 0xc6, 0xbd, 0x4a, 0xf4, 0xea, 0xbd,
  0x11, 0x76, 0x4d, 0x3e, 0xb2, 0xd3, 0x81, 0xbe, 0x29, 0xc1, 0xb2, 0xbd,
  0xdb, 0xac, 0x26, 0x3d, 0xfc, 0x40, 0x3f, 0xbe, 0x2d, 0xa6, 0xa0, 0x3c,
  0xa4, 0x9d, 0xa9, 0x3b, 0x97, 0x85, 0x45, 0x3d, 0x8a, 0xb1, 0xee, 0x3d,
  0x18, 0xfc, 0x15, 0x3f, 0xf7, 0x16, 0x4e, 0xbd, 0xe3, 0xbe, 0xf0, 0x3e,
  0x23, 0x9f, 0x8a, 0xbc, 0x96, 0xb4, 0xb0, 0x3b, 0x50, 0x6d, 0x40, 0xbd,
  0x34, 0xe5, 0x51, 0xbd, 0xc5, 0x82, 0x00, 0xbd, 0x0d, 0x6e, 0x1e, 0xbd,
  0x15, 0x60, 0xb1, 0xbd, 0x92, 0x99, 0x89, 0xbd, 0x93, 0x38, 0x45, 0xbe,
  0x05, 0xf7, 0x4d, 0xbe, 0xe9, 0x60, 0xeb, 0xbd, 0x22, 0x75, 0x86, 0xbd,
  0xc5, 0xfb, 0x5f, 0xbd, 0x4b, 0xe8, 0x9d, 0x3d, 0xa1, 0x43, 0xd2, 0xbd,
  0x39, 0x36, 0x7a, 0xbe, 0x3d, 0xef, 0x3b, 0xbc, 0x9f, 0x8a, 0x3b, 0xbe,
  0x2f, 0x49, 0x1d, 0xbd, 0x2d, 0x94, 0x8f, 0xbd, 0x06, 0x3d, 0x6a, 0xbd,
  0xe8, 0x11, 0xc2, 0x3d, 0xd6, 0x68, 0x03, 0xbd, 0xbd, 0x41, 0x18, 0xbd,
  0xfd, 0x85, 0x7a, 0x3c, 0x18, 0xb9, 0x31, 0xbe, 0x92, 0x2e, 0x5b, 0xbe,
  0x32, 0x8d, 0xaf, 0xbd, 0xfb, 0xd7, 0x3f, 0x3d, 0x5d, 0x11, 0x7d, 0x3e,
  0x23, 0x85, 0xcf, 0xbd, 0xe6, 0x5d, 0xbc, 0xbe, 0x77, 0xf7, 0x55, 0xbe,
  0x95, 0xc7, 0x80, 0xbe, 0x61, 0xaf, 0x3b, 0xbe, 0x57, 0x65, 0xb7, 0xbd,
  0x34, 0x04, 0x34, 0xbd, 0x1b, 0xeb, 0xac, 0x3d, 0x63, 0x35, 0x76, 0xbd,
  0x50, 0xad, 0xc4, 0xbe, 0x57, 0xa0, 0x59, 0xbe, 0x9e, 0x66, 0x9f, 0xbe,
  0x37, 0x48, 0xb2, 0xbd, 0x3f, 0xba, 0x16, 0xbd, 0x68, 0x53, 0xcf, 0x3c,
  0x8f, 0xc8, 0x5f, 0xbd, 0x00, 0xea, 0x15, 0xbd, 0x5f, 0x64, 0x58, 0x3e,
  0xf0, 0x9e, 0x01, 0x3e, 0x22, 0x3c, 0x8f, 0x3d, 0x96, 0x77, 0x8e, 0x3e,
  0x03, 0x5c, 0x2d, 0x3e, 0x22, 0x41, 0xaf, 0xbe, 0x40, 0xd7, 0x8a, 0x3d,
  0x86, 0x00, 0xc6, 0x3d, 0x79, 0x76, 0x9b, 0x3e, 0xd6, 0x3b, 0x27, 0x3e,
  0xdd, 0xff, 0x51, 0x3e, 0xe2, 0xdd, 0xff, 0xff, 0x10, 0x00, 0x00, 0x00,
  0x0a, 0x00, 0x00, 0x00, 0x1c, 0x00, 0x00, 0x00, 0x38, 0x00, 0x00, 0x00,
  0x04, 0x00, 0x00, 0x00, 0x10, 0x00, 0x00, 0x00, 0x04, 0x00, 0x00, 0x00,
  0x01, 0x00, 0x00, 0x00, 0x08, 0x00, 0x00, 0x00, 0x1a, 0x00, 0x00, 0x00,
  0x73, 0x65, 0x71, 0x75, 0x65, 0x6e, 0x74, 0x69, 0x61, 0x6c, 0x2f, 0x63,
  0x6f, 0x6e, 0x76, 0x32, 0x64, 0x5f, 0x31, 0x2f, 0x43, 0x6f, 0x6e, 0x76,
  0x32, 0x44, 0x00, 0x00, 0x58, 0xdd, 0xff, 0xff, 0x62, 0xde, 0xff, 0xff,
  0x04, 0x00, 0x00, 0x00, 0x80, 0x01, 0x00, 0x00, 0x91, 0x49, 0x95, 0x3e,
  0xbc, 0x80, 0xf7, 0xbd, 0x23, 0xda, 0x7c, 0x3d, 0x43, 0x33, 0xd2, 0x3e,
  0x5d, 0x05, 0x3b, 0x3e, 0x30, 0x26, 0xdf, 0xbd, 0x7a, 0x45, 0xb6, 0x3c,
  0x08, 0x39, 0x14, 0x3a, 0xaa, 0x30, 0x49, 0x3d, 0xef, 0x0f, 0x72, 0xbe,
  0x73, 0x50, 0xdc, 0xbd, 0xbe, 0xc9, 0xf3, 0xbd, 0x24, 0x9f, 0x50, 0x3c,
  0x38, 0x94, 0x44, 0xbe, 0xf9, 0x0f, 0x0c, 0xbb, 0xd3, 0xd1, 0xe9, 0xbd,
  0xd8, 0x48, 0x9b, 0xbd, 0xbc, 0x37, 0xbb, 0x3d, 0x0e, 0x10, 0xf5, 0xbd,
  0xa3, 0x9a, 0x3e, 0x3d, 0xf4, 0x34, 0x9f, 0x3b, 0xda, 0x2a, 0x0c, 0xbe,
  0x1f, 0xf0, 0x5c, 0x3e, 0x27, 0x98, 0x21, 0xbe, 0x54, 0x94, 0x24, 0xbe,
  0x39, 0x5f, 0xdc, 0xbd, 0x7f, 0x0f, 0x24, 0x3e, 0xc9, 0x7e, 0x98, 0xbd,
  0x5b, 0x35, 0xcb, 0xbd, 0x25, 0x27, 0xd0, 0x3d, 0xb2, 0x6f, 0x4b, 0x3d,
  0x74, 0xe1, 0x8c, 0x3c, 0xb7, 0xf3, 0x05, 0x3e, 0x21, 0x6b, 0x95, 0x3d,
  0x3a, 0x62, 0x18, 0x3e, 0xdd, 0x78, 0x90, 0xbe, 0xe5, 0x9e, 0x14, 0xbe,
  0xef, 0xac, 0x13, 0xbc, 0x48, 0x48, 0x57, 0xbd, 0xc1, 0x7a, 0xdb, 0xbe,
  0xe0, 0x5f, 0x5c, 0xbe, 0xb1, 0x6a, 0xa8, 0xbd, 0x2b, 0x67, 0x30, 0xbc,
  0x86, 0x66, 0xb9, 0x3d, 0xb3, 0xff, 0x51, 0x3d, 0x5d, 0x4d, 0x0d, 0x3f,
  0x73, 0x05, 0x06, 0x3e, 0x6a, 0xf9, 0x1c, 0xbd, 0xf4, 0x5a, 0xac, 0xbd,
  0xaa, 0xec, 0xe7, 0xbc, 0x78, 0xc5, 0x51, 0xbd, 0x35, 0xf0, 0x8b, 0xbd,
  0x3b, 0x11, 0x89, 0xbc, 0x18, 0x6c, 0x6e, 0xbb, 0x8e, 0x4c, 0xc0, 0xbd,
  0x31, 0xb5, 0x8b, 0x3d, 0x1a, 0xaf, 0x93, 0xbd, 0x7f, 0x82, 0x65, 0xbd,
  0x22, 0x53, 0x7a, 0x3d, 0xeb, 0x5d, 0x08, 0xbe, 0x1d, 0xae, 0xc7, 0xba,
  0xb6, 0xc7, 0xa8, 0xbb, 0x40, 0x63, 0xb1, 0xbc, 0x19, 0xec, 0xe8, 0x3e,
  0xf1, 0x35, 0xbc, 0x3d, 0xa2, 0x9f, 0xf1, 0xbe, 0x6b, 0x98, 0xae, 0xbe,
  0x24, 0xe5, 0xbf, 0xbc, 0x37, 0xf4, 0x6d, 0x3d, 0x35, 0xe7, 0xb6, 0xbd,
  0xf8, 0xce, 0xc2, 0xbd, 0x04, 0x71, 0xd2, 0x3e, 0x94, 0x8c, 0x7f, 0x3d,
  0x24, 0x06, 0x7b, 0x3d, 0x4a, 0xdd, 0x64, 0x3e, 0x00, 0x4f, 0xaa, 0x3d,
  0xa8, 0x23, 0xc8, 0x3d, 0xfd, 0xbb, 0x75, 0x3c, 0x1d, 0x8a, 0xcf, 0xbd,
  0x97, 0x21, 0x38, 0x3d, 0x82, 0xb8, 0x8f, 0xbd, 0xe1, 0xc5, 0x0e, 0x3c,
  0x84, 0x26, 0x82, 0xbe, 0x7b, 0x9e, 0xa7, 0xbe, 0x27, 0x25, 0x0e, 0x3e,
  0x6f, 0x92, 0xa7, 0x3e, 0x53, 0x47, 0xac, 0x3d, 0x5e, 0x8b, 0xd5, 0xbd,
  0xdb, 0xbc, 0xd8, 0x3d, 0x3a, 0x88, 0x39, 0x3e, 0x0e, 0x2c, 0x99, 0xbc,
  0xfc, 0x33, 0x9e, 0xbe, 0xed, 0x41, 0x15, 0xbe, 0xd3, 0x22, 0xa1, 0xbb,
  0x85, 0x9b, 0x17, 0xbe, 0x22, 0x1f, 0x47, 0xbe, 0xba, 0xdf, 0xff, 0xff,
  0x10, 0x00, 0x00, 0x00, 0x09, 0x00, 0x00, 0x00, 0x1c, 0x00, 0x00, 0x00,
  0x38, 0x00, 0x00, 0x00, 0x04, 0x00, 0x00, 0x00, 0x08, 0x00, 0x00, 0x00,
  0x04, 0x00, 0x00, 0x00, 0x03, 0x00, 0x00, 0x00, 0x01, 0x00, 0x00, 0x00,
  0x18, 0x00, 0x00, 0x00, 0x73, 0x65, 0x71, 0x75, 0x65, 0x6e, 0x74, 0x69,
  0x61, 0x6c, 0x2f, 0x63, 0x6f, 0x6e, 0x76, 0x32, 0x64, 0x2f, 0x43, 0x6f,
  0x6e, 0x76, 0x32, 0x44, 0x00, 0x00, 0x00, 0x00, 0x30, 0xdf, 0xff, 0xff,
  0x3a, 0xe0, 0xff, 0xff, 0x04, 0x00, 0x00, 0x00, 0x00, 0x01, 0x00, 0x00,
  0xba, 0x70, 0x59, 0x3e, 0xf6, 0xbf, 0xc8, 0x3d, 0x82, 0xcd, 0x25, 0xbc,
  0x6f, 0x1f, 0x04, 0xbe, 0xee, 0x4a, 0x25, 0x3e, 0xfd, 0xa3, 0xc4, 0xbd,
  0x09, 0x01, 0x46, 0xbd, 0xce, 0x57, 0xbe, 0xbd, 0xe8, 0xff, 0xbb, 0xbd,
  0x62, 0xa8, 0x06, 0x3e, 0xf6, 0xa5, 0x52, 0x3e, 0x9c, 0x44, 0x16, 0xbe,
  0xde, 0x64, 0x96, 0x3e, 0x29, 0x64, 0x6f, 0x3d, 0x7c, 0x58, 0x2a, 0x3e,
  0x6d, 0x33, 0x55, 0x3e, 0xda, 0xe0, 0x13, 0x3d, 0x72, 0x54, 0x82, 0xbe,
  0x4d, 0x7a, 0x0f, 0xbe, 0xcf, 0xc8, 0x55, 0xbe, 0xe5, 0x7d, 0x55, 0x3d,
  0xbe, 0x18, 0x5a, 0xbe, 0x18, 0x1f, 0xaa, 0xbc, 0x2c, 0x51, 0x87, 0xbe,
  0x95, 0xc5, 0xb5, 0xbe, 0xac, 0x5a, 0x53, 0x3e, 0xa6, 0x94, 0x4e, 0x3e,
  0xef, 0x3f, 0x4b, 0xbe, 0x68, 0xb5, 0x55, 0x3e, 0x86, 0x94, 0xaf, 0x3b,
  0x63, 0x94, 0x5e, 0x3e, 0x06, 0x34, 0xc5, 0x3c, 0xa4, 0x42, 0x80, 0x3d,
  0x12, 0xb3, 0x23, 0x3e, 0xaa, 0xec, 0x62, 0xbe, 0x64, 0x6a, 0x1f, 0xbe,
  0xc3, 0xe0, 0x11, 0x3e, 0xf7, 0x42, 0x8b, 0xbd, 0x3e, 0xaa, 0xd1, 0x3d,
  0xfb, 0xef, 0x1f, 0xbf, 0xbc, 0x16, 0xde, 0x3d, 0x25, 0xec, 0xd0, 0xbe,
  0x5a, 0x1b, 0x5a, 0x3e, 0x96, 0xe2, 0x4a, 0xbe, 0x16, 0xf7, 0xcd, 0x3e,
  0xdc, 0xe4, 0x8f, 0x3b, 0x33, 0xf5, 0x2e, 0x3e, 0xd5, 0x98, 0xf3, 0x3e,
  0x70, 0xff, 0x2d, 0x3e, 0xfe, 0x4e, 0xa9, 0x3d, 0x6f, 0xe5, 0x21, 0xbe,
  0x97, 0x01, 0x7b, 0xbe, 0x07, 0x88, 0x23, 0x3d, 0x25, 0x5a, 0xe6, 0xbc,
  0x2c, 0x97, 0x52, 0xbd, 0x75, 0x43, 0x58, 0xbd, 0xd4, 0x3d, 0xea, 0x3d,
  0x0d, 0x79, 0x99, 0x3e, 0x09, 0x79, 0x90, 0x3e, 0xb1, 0x6f, 0xfd, 0xbd,
  0x67, 0xcb, 0x9f, 0x3e, 0xc4, 0xe9, 0x20, 0x3e, 0x70, 0x67, 0xef, 0x3c,
  0x2c, 0x56, 0xf3, 0x3e, 0x12, 0xe1, 0xff, 0xff, 0x10, 0x00, 0x00, 0x00,
  0x08, 0x00, 0x00, 0x00, 0x14, 0x00, 0x00, 0x00, 0x30, 0x00, 0x00, 0x00,
  0x02, 0x00, 0x00, 0x00, 0x04, 0x00, 0x00, 0x00, 0x10, 0x00, 0x00, 0x00,
  0x19, 0x00, 0x00, 0x00, 0x73, 0x65, 0x71, 0x75, 0x65, 0x6e, 0x74, 0x69,
  0x61, 0x6c, 0x2f, 0x64, 0x65, 0x6e, 0x73, 0x65, 0x5f, 0x31, 0x2f, 0x4d,
  0x61, 0x74, 0x4d, 0x75, 0x6c, 0x00, 0x00, 0x00, 0x80, 0xe0, 0xff, 0xff,
  0x8a, 0xe1, 0xff, 0xff, 0x04, 0x00, 0x00, 0x00, 0x00, 0x1c, 0x00, 0x00,
  0x9b, 0xd1, 0xdb, 0x3c, 0xfd, 0x96, 0x2d, 0xbd, 0x4e, 0xa1, 0x02, 0x3e,
  0xd3, 0xb6, 0xfd, 0x3d, 0x6b, 0x88, 0x69, 0xbe, 0x44, 0xf9, 0xd1, 0x3d,
  0x78, 0x65, 0xac, 0x3d, 0x00, 0x68, 0xa6, 0xbe, 0x9f, 0x2a, 0x73, 0xbc,
  0x23, 0x04, 0x12, 0xbe, 0x45, 0x7e, 0x59, 0xbe, 0xad, 0x43, 0xb3, 0xbd,
  0x8e, 0x8b, 0xf6, 0xbb, 0x93, 0x50, 0x26, 0xbf, 0xc4, 0xd6, 0x20, 0x3c,
  0x2a, 0xe6, 0x37, 0xbd, 0x6d, 0x54, 0x79, 0xbd, 0xb2, 0x62, 0xc5, 0x3d,
  0xbf, 0x78, 0x1a, 0x3e, 0x3e, 0xba, 0x42, 0x3c, 0x91, 0x51, 0x1b, 0xbe,
  0xfd, 0x6d, 0x0b, 0x3f, 0x94, 0x47, 0x5b, 0x3f, 0x00, 0x1a, 0x96, 0x3c,
  0x1e, 0x58, 0xa4, 0xbe, 0x2d, 0x6c, 0x3f, 0xbd, 0xcb, 0x05, 0xe4, 0xbc,
  0xc4, 0x13, 0xa6, 0xbd, 0x03, 0x0d, 0x8a, 0xbd, 0xe0, 0xc1, 0x06, 0xbf,
  0xb7, 0xf2, 0x11, 0x3d, 0xb0, 0x85, 0x9c, 0x3e, 0xb3, 0x61, 0x8b, 0xbe,
  0x4d, 0x56, 0xc3, 0x3e, 0x20, 0xd1, 0x1d, 0x3e, 0x0c, 0xab, 0x82, 0x3b,
  0x5c, 0xa6, 0xb0, 0xbc, 0x96, 0x0a, 0x89, 0x3f, 0xf8, 0x61, 0x6b, 0x3f,
  0xed, 0x0d, 0x15, 0xbe, 0xa9, 0x2a, 0x70, 0xbe, 0x31, 0xe8, 0x4f, 0x3b,
  0xc5, 0x29, 0xd3, 0xbe, 0xaf, 0x1d, 0xf1, 0xbe, 0x1b, 0x0f, 0x69, 0xba,
  0x05, 0x98, 0x1f, 0xbf, 0xbc, 0x60, 0xa5, 0x3c, 0x57, 0x83, 0xd7, 0x3e,
  0xfe, 0x6e, 0x98, 0xbd, 0x9b, 0xc5, 0x42, 0x3e, 0x22, 0x3d, 0x2b, 0x3e,
  0x60, 0x94, 0xd1, 0xbd, 0xdd, 0xed, 0x31, 0xbd, 0x22, 0xb2, 0xa1, 0x3f,
  0xb4, 0x6c, 0x71, 0x3f, 0x49, 0x2d, 0x1a, 0xbd, 0x5e, 0xb8, 0xa6, 0xbe,
  0x42, 0x38, 0x75, 0x3d, 0x24, 0x96, 0x2a, 0xbe, 0x49, 0x02, 0x2b, 0x3e,
  0x05, 0x1d, 0x8d, 0x3e, 0x80, 0x6c, 0xcc, 0xbe, 0x68, 0xd0, 0x24, 0x3e,
  0x7c, 0x8d, 0x51, 0x3e, 0xeb, 0xc6, 0xce, 0xbe, 0xbf, 0x0b, 0x9e, 0x3d,
  0xbd, 0x4f, 0x81, 0x3d, 0x43, 0x8e, 0x52, 0xbd, 0x2d, 0xd5, 0x57, 0xbd,
  0xe0, 0xc5, 0x1e, 0x3f, 0x39, 0xd9, 0x30, 0x3f, 0x5a, 0x3d, 0x93, 0xbd,
  0x19, 0x22, 0x54, 0xbe, 0x3b, 0x5d, 0x3e, 0xbe, 0xbf, 0x7c, 0xc8, 0xbe,
  0x45, 0x5f, 0x87, 0x3d, 0x19, 0xf2, 0x0c, 0x3e, 0x94, 0x62, 0xaa, 0xbd,
  0x97, 0x42, 0x1e, 0x3e, 0x62, 0x25, 0x3a, 0x3d, 0xd9, 0x09, 0xcf, 0xbd,
  0xab, 0xd5, 0x69, 0x3d, 0x20, 0x5c, 0x89, 0x3e, 0x93, 0xfe, 0xeb, 0x3d,
  0xd5, 0xc2, 0x30, 0xbe, 0xbd, 0x42, 0x95, 0x3e, 0xab, 0x5e, 0x65, 0x3f,
  0x6f, 0x56, 0xaa, 0xbe, 0xfe, 0xce, 0x6b, 0xbc, 0x63, 0x6b, 0x19, 0xbe,
  0xec, 0xed, 0x11, 0xbe, 0x29, 0xc1, 0x23, 0xbf, 0x9b, 0xfe, 0xd2, 0x3c,
  0xb7, 0x47, 0xf2, 0xbd, 0x0c, 0x41, 0x23, 0x3e, 0x16, 0x2c, 0x42, 0x3d,
  0xf4, 0xf7, 0xa1, 0xbd, 0xd9, 0xa1, 0x76, 0xbc, 0x21, 0x37, 0x0f, 0x3d,
  0x70, 0x34, 0xc6, 0xbc, 0x39, 0x4b, 0x4b, 0x3b, 0x9b, 0xbd, 0x0b, 0x3d,
  0x5f, 0xf5, 0xd0, 0x3d, 0x9b, 0x8b, 0x9f, 0xbe, 0x78, 0xb8, 0x03, 0x3d,
  0xca, 0x7c, 0xa0, 0xbd, 0x1f, 0x7e, 0x33, 0xbe, 0x14, 0xa2, 0x53, 0xbd,
  0x14, 0x19, 0x13, 0x3d, 0xd2, 0x40, 0xdc, 0xbc, 0x90, 0xb0, 0xbc, 0x3b,
  0x9e, 0x7c, 0x24, 0x3c, 0xc8, 0xa7, 0x92, 0xbe, 0xeb, 0xbe, 0x21, 0x3d,
  0xa3, 0x64, 0x49, 0xbc, 0x1e, 0xe5, 0x89, 0xbd, 0xc2, 0x35, 0xa0, 0xbe,
  0xf2, 0x7a, 0x5a, 0xbd, 0xf5, 0xbc, 0x67, 0x3e, 0xdc, 0xfe, 0x5b, 0xbb,
  0x5f, 0xd2, 0x62, 0x3e, 0x9c, 0x2b, 0xc3, 0xbe, 0xba, 0xfd, 0x78, 0xbe,
  0x94, 0x41, 0xd6, 0x3e, 0xfa, 0x16, 0x94, 0xbe, 0x9e, 0x53, 0xc1, 0xbb,
  0x62, 0x09, 0x90, 0xbd, 0x25, 0xef, 0x88, 0xbc, 0x2d, 0xcd, 0x92, 0xbd,
  0x36, 0x39, 0x12, 0x3f, 0xdd, 0x32, 0xd4, 0xbe, 0x50, 0x20, 0x57, 0xbe,
  0x37, 0x59, 0xa0, 0xbe, 0xeb, 0x5e, 0x39, 0xbd, 0x57, 0x1a, 0x35, 0x3e,
  0xc6, 0x14, 0x21, 0x3e, 0x59, 0x34, 0xbd, 0x3c, 0x86, 0xe8, 0xc6, 0x3d,
  0x82, 0xa6, 0x9a, 0xbd, 0xe1, 0x30, 0x13, 0x3f, 0xb7, 0x0b, 0x41, 0xbe,
  0x4d, 0xc6, 0x2d, 0x3d, 0xe5, 0x0b, 0x7d, 0xbe, 0xb5, 0x1c, 0x63, 0xbe,
  0x05, 0x44, 0x5a, 0xbe, 0xc2, 0x81, 0xc0, 0x3e, 0x8b, 0x16, 0x68, 0xbe,
  0x54, 0x32, 0x97, 0xbc, 0xd3, 0xc2, 0x3f, 0x3e, 0x06, 0x64, 0x96, 0x3e,
  0x1f, 0x8e, 0xef, 0x3d, 0x59, 0xdf, 0x42, 0xbd, 0x47, 0xf0, 0x89, 0x3d,
  0x19, 0xf4, 0x08, 0xbe, 0xad, 0xab, 0x32, 0x3e, 0xfc, 0xb7, 0xd8, 0xbc,
  0xb1, 0xf4, 0x1c, 0x3e, 0x9e, 0xdf, 0x92, 0x3d, 0xb8, 0x66, 0x16, 0xbd,
  0x53, 0xb3, 0xa9, 0xbd, 0x6f, 0x1f, 0x8e, 0xbe, 0xc1, 0xea, 0xb8, 0x3d,
  0x71, 0xe0, 0x21, 0xbe, 0xd5, 0xcb, 0xb9, 0x3d, 0xd3, 0xc3, 0xc2, 0xbd,
  0x1f, 0x3c, 0x5c, 0x3e, 0x25, 0x0b, 0x15, 0x3e, 0xea, 0xf4, 0x0c, 0xbe,
  0x2a, 0xd5, 0x04, 0xbd, 0xcd, 0x61, 0xf0, 0xbd, 0x9f, 0x0c, 0xbb, 0x3e,
  0x92, 0x44, 0x18, 0xbd, 0x99, 0xdf, 0x7e, 0xbe, 0x99, 0x52, 0x5a, 0x3d,
  0xad, 0xa6, 0xbe, 0x3d, 0xb1, 0xf1, 0x56, 0xbc, 0xe5, 0x3f, 0x8f, 0xbe,
  0xbb, 0x7d, 0x20, 0x3e, 0x2f, 0xa8, 0x88, 0x3d, 0x92, 0xe9, 0xb1, 0x3d,
  0xf8, 0x34, 0xaa, 0xbd, 0x30, 0x68, 0x54, 0x3e, 0x37, 0x50, 0x7b, 0x3e,
  0x66, 0x6c, 0x50, 0xbd, 0x31, 0xb4, 0x19, 0xbe, 0xb5, 0xde, 0x55, 0xbe,
  0x99, 0x85, 0x73, 0x3d, 0x15, 0xca, 0x8a, 0xbd, 0xde, 0x8e, 0xbf, 0xbe,
  0x42, 0x58, 0x8d, 0x3d, 0x5b, 0x0f, 0xc7, 0xbd, 0xd4, 0x25, 0xd2, 0x3d,
  0x04, 0x8d, 0x88, 0xbe, 0x07, 0xa6, 0x03, 0xbe, 0x0a, 0xd4, 0x9e, 0x3d,
  0xbf, 0x56, 0x09, 0x3f, 0xd3, 0x60, 0x6b, 0xbe, 0x4f, 0x03, 0xc9, 0x3c,
  0x9e, 0x50, 0xb3, 0x3d, 0x1a, 0xaa, 0x8b, 0x3d, 0x4d, 0x9c, 0xff, 0xbd,
  0xca, 0xe1, 0xc3, 0xbe, 0xf3, 0x4f, 0x1c, 0x3c, 0x58, 0xc5, 0xe3, 0x3e,
  0xf5, 0xea, 0x9d, 0xbe, 0xa1, 0x5e, 0xeb, 0x3d, 0xb5, 0xa0, 0x0d, 0xbe,
  0x5b, 0xeb, 0x87, 0x3d, 0xbb, 0x0e, 0x0f, 0xbe, 0xa1, 0xb3, 0xe8, 0x3d,
  0x11, 0xa5, 0xd1, 0xbd, 0x45, 0xad, 0xee, 0x3d, 0x65, 0xf1, 0x45, 0xbe,
  0x18, 0x54, 0x07, 0xbf, 0xee, 0x28, 0xbc, 0xbe, 0x12, 0x14, 0x5d, 0x3d,
  0xd7, 0xaa, 0xe5, 0xbe, 0x4f, 0xa6, 0x6e, 0xbe, 0x0e, 0xad, 0xb1, 0xbd,
  0x80, 0x90, 0x06, 0x3e, 0x96, 0xb5, 0x37, 0xbf, 0x35, 0x86, 0x62, 0xbc,
  0xfa, 0xf4, 0x89, 0xbe, 0xe4, 0x4e, 0x80, 0xbe, 0xb1, 0xa4, 0xa3, 0xbd,
  0x67, 0xc1, 0x9c, 0x3d, 0x9c, 0x26, 0xe9, 0xbe, 0x89, 0xe7, 0x19, 0xbd,
  0xdc, 0x9a, 0x26, 0xbf, 0x01, 0x21, 0x44, 0xbe, 0xdc, 0xae, 0x56, 0xbd,
  0xc0, 0xaf, 0xae, 0xbe, 0x20, 0x2e, 0x06, 0xbf, 0xf0, 0xc5, 0xa9, 0xbe,
  0x5f, 0x55, 0x33, 0xbe, 0xda, 0xbc, 0x15, 0xbe, 0x40, 0x5e, 0x10, 0xbe,
  0xed, 0xba, 0x83, 0xbe, 0x4a, 0x5d, 0x5d, 0xbf, 0x90, 0x4d, 0xd1, 0xbd,
  0xfe, 0x29, 0xd8, 0xbd, 0x3d, 0xae, 0xf2, 0x3e, 0x6a, 0x3c, 0x19, 0xbe,
  0x80, 0xa1, 0xef, 0x3d, 0x91, 0x31, 0x15, 0xbf, 0x2c, 0x48, 0x1a, 0x3f,
  0x30, 0xb9, 0x99, 0x3f, 0xe6, 0xaf, 0xa0, 0xbe, 0xd7, 0xa8, 0xdd, 0xbe,
  0xe3, 0x0d, 0x10, 0xbb, 0x13, 0x9f, 0xa5, 0x3d, 0xce, 0x56, 0x9a, 0xbd,
  0xb9, 0xe3, 0x2c, 0x3d, 0x40, 0xd4, 0x9a, 0xbe, 0x88, 0x1f, 0xfe, 0xbe,
  0xd8, 0x0f, 0x90, 0x3d, 0xe3, 0x00, 0xf1, 0x3d, 0x31, 0xea, 0xe9, 0x3e,
  0x3a, 0xf4, 0x74, 0x3d, 0x7f, 0xc3, 0xfa, 0x3c, 0x41, 0xf6, 0x0b, 0xbe,
  0xf9, 0x02, 0x83, 0x3f, 0x3c, 0xf3, 0x74, 0x3f, 0x81, 0xd8, 0x93, 0xbe,
  0x50, 0xa6, 0xb2, 0xbe, 0x91, 0x8d, 0x18, 0xbe, 0x7c, 0x20, 0x06, 0x3e,
  0x7a, 0xdd, 0x27, 0x3c, 0x81, 0xbe, 0xe2, 0x3c, 0xe8, 0xe9, 0x97, 0xbe,
  0x73, 0x6d, 0x1e, 0xbe, 0xdb, 0x15, 0x13, 0x3e, 0xec, 0x4d, 0x7d, 0xbe,
  0x7f, 0xbb, 0x23, 0x3e, 0xaa, 0x88, 0xff, 0x3d, 0x82, 0x85, 0xd3, 0x3a,
  0xb6, 0x34, 0x00, 0xba, 0xd5, 0xb4, 0x53, 0x3f, 0x09, 0xe2, 0x97, 0x3f,
  0x5a, 0xcc, 0x80, 0xbc, 0x93, 0x67, 0xaf, 0xbe, 0xf3, 0xde, 0x11, 0xbe,
  0xad, 0xf9, 0x1d, 0xbd, 0x55, 0xaa, 0xd3, 0x3d, 0xda, 0xec, 0xbe, 0x3d,
  0xd6, 0x2d, 0x56, 0xbe, 0x06, 0xb8, 0x1f, 0x3e, 0x32, 0x8c, 0x6c, 0x3c,
  0x03, 0xf9, 0x54, 0xbe, 0x5a, 0x5d, 0xac, 0x3d, 0x36, 0x1c, 0x1b, 0x3e,
  0xf8, 0x84, 0x04, 0x3e, 0x28, 0x83, 0x9a, 0xbd, 0x4e, 0x12, 0x11, 0x3e,
  0x17, 0x51, 0x9b, 0x3f, 0x91, 0x71, 0x46, 0x3e, 0x4c, 0x86, 0xab, 0xbe,
  0x9b, 0xdb, 0x0c, 0xbe, 0x48, 0xf0, 0xb5, 0xbd, 0xc2, 0x6c, 0x25, 0x3e,
  0x78, 0xde, 0x3e, 0x3e, 0x04, 0x1d, 0x45, 0xbe, 0xb6, 0x66, 0x88, 0x3e,
  0x51, 0x7a, 0x68, 0x3d, 0xac, 0xe4, 0xcc, 0xbe, 0x4e, 0x7f, 0x8f, 0x3d,
  0x4c, 0x74, 0x38, 0x3e, 0x77, 0x73, 0xa1, 0xbd, 0xb3, 0x19, 0x42, 0xbe,
  0xa0, 0x54, 0x7d, 0x3e, 0xd3, 0xf4, 0xb8, 0x3f, 0x90, 0xaf, 0x9b, 0xbe,
  0xe9, 0x9a, 0x59, 0xbe, 0x0e, 0x8e, 0x24, 0xbe, 0xad, 0x91, 0xb5, 0xbe,
  0xdb, 0x9c, 0x82, 0xbe, 0xbd, 0x28, 0x27, 0x3d, 0x57, 0xf0, 0x31, 0xbf,
  0xb6, 0xb0, 0xe3, 0x3e, 0x8d, 0xbe, 0x0b, 0x3e, 0xf1, 0x91, 0x4a, 0xbe,
  0x9b, 0xb2, 0x06, 0x3e, 0x37, 0xb6, 0x6e, 0xbb, 0x62, 0x2f, 0xc3, 0xbd,
  0x87, 0xa7, 0xc6, 0xbd, 0x2b, 0x7b, 0x8f, 0xbe, 0x0d, 0x3b, 0xa0, 0x3e,
  0x21, 0xec, 0xf6, 0xbe, 0x56, 0xae, 0x7e, 0xbe, 0x79, 0x93, 0xc8, 0xbd,
  0x24, 0x76, 0x0c, 0xbf, 0x75, 0xc0, 0x93, 0xbe, 0x5d, 0x20, 0xd6, 0xbd,
  0xe6, 0xb3, 0xb5, 0xbe, 0x06, 0x21, 0xa4, 0xbe, 0x2c, 0x77, 0xc1, 0x3d,
  0x83, 0xc8, 0x55, 0xbc, 0x6e, 0x8e, 0xd0, 0x3b, 0xbe, 0x2d, 0xb9, 0x3e,
  0xcb, 0xf5, 0x4c, 0x3d, 0x57, 0x9c, 0xbb, 0xbe, 0xa4, 0x3b, 0x22, 0x3e,
  0x3f, 0x63, 0x15, 0xbe, 0x26, 0x83, 0x26, 0xbe, 0xe0, 0x3e, 0xab, 0xbe,
  0xa0, 0x37, 0x9b, 0xbe, 0xea, 0x8f, 0x70, 0xbe, 0x9f, 0x24, 0xec, 0x3e,
  0xed, 0x9e, 0x25, 0xbb, 0xee, 0x36, 0x0e, 0xbd, 0x7c, 0x7a, 0x36, 0x3e,
  0x4e, 0x09, 0x0d, 0xbd, 0x8d, 0x54, 0x8e, 0xbd, 0xae, 0x1a, 0xb7, 0x3e,
  0xda, 0x1d, 0x40, 0xbd, 0x1f, 0x96, 0xbb, 0xbe, 0xd7, 0xb8, 0x12, 0xbf,
  0xde, 0x8b, 0x8f, 0xbe, 0xf6, 0x7f, 0xfd, 0xbc, 0x1c, 0x62, 0x7e, 0x3e,
  0xf8, 0x79, 0x61, 0xbc, 0x14, 0xda, 0xf7, 0xbc, 0xe3, 0x20, 0xa8, 0x3d,
  0x88, 0x73, 0x17, 0x3e, 0xb6, 0x96, 0xb3, 0x3d, 0x44, 0x77, 0x5f, 0x3d,
  0x84, 0x08, 0xe6, 0x3d, 0x3b, 0x63, 0xa4, 0x3e, 0xe5, 0x8d, 0xa3, 0xbe,
  0xc2, 0xa9, 0x26, 0x3f, 0x87, 0x68, 0xe3, 0xbe, 0x48, 0x9c, 0xa0, 0xbe,
  0xb9, 0x9b, 0x95, 0x3d, 0xdb, 0xa1, 0xf8, 0x3d, 0x48, 0xdd, 0x67, 0x3d,
  0x75, 0xf0, 0x92, 0xbd, 0x8d, 0x4b, 0x0b, 0x3e, 0xb4, 0x6a, 0x6e, 0x3c,
  0x4b, 0x39, 0xba, 0x3d, 0x55, 0xd5, 0x29, 0x3e, 0xb5, 0x0f, 0x8f, 0x3d,
  0x7e, 0x3a, 0xab, 0x3c, 0xaf, 0x89, 0xa5, 0x3d, 0xa6, 0x3d, 0xc1, 0x3e,
  0x77, 0x17, 0x00, 0xbf, 0x56, 0x93, 0x2c, 0x3f, 0x99, 0x45, 0x97, 0xbe,
  0x90, 0x74, 0x0d, 0xbe, 0xfd, 0x54, 0xac, 0x3d, 0x91, 0x05, 0xba, 0x3e,
  0x89, 0x0e, 0x05, 0x3e, 0x01, 0x8a, 0xde, 0x3c, 0x65, 0x3a, 0x05, 0x3e,
  0xa9, 0xde, 0x48, 0xbe, 0x9d, 0xff, 0x13, 0x3e, 0x5b, 0x5a, 0x7f, 0xbe,
  0xec, 0xa9, 0xd3, 0x3e, 0x3d, 0xe9, 0x4f, 0x3c, 0x38, 0x34, 0x43, 0xbe,
  0x5d, 0xfa, 0xd5, 0x3e, 0xe0, 0x16, 0x0b, 0xbf, 0x47, 0x7e, 0xcc, 0x3e,
  0xe3, 0x96, 0x3e, 0xbe, 0xcb, 0xcb, 0xcb, 0xbd, 0xe0, 0x2e, 0xa1, 0xbe,
  0x51, 0xc6, 0x82, 0x3e, 0x07, 0xdb, 0x6d, 0x3e, 0x9d, 0xa6, 0x06, 0xbe,
  0x55, 0xbb, 0x09, 0xbd, 0xa5, 0xb4, 0x18, 0xbf, 0xec, 0x1d, 0x5f, 0xbe,
  0x2a, 0x80, 0x05, 0xbe, 0x00, 0xe1, 0x4b, 0x3e, 0x89, 0xed, 0x03, 0x3d,
  0x44, 0xdb, 0x16, 0x3e, 0x26, 0x41, 0x7f, 0x3e, 0x97, 0x8c, 0xae, 0xbe,
  0x5f, 0xd9, 0x61, 0xbc, 0x12, 0x95, 0xb1, 0x3e, 0x95, 0x66, 0x04, 0x3f,
  0xba, 0x6f, 0xf2, 0xbe, 0xfd, 0x4f, 0xde, 0x3e, 0x03, 0xde, 0x34, 0x3e,
  0x4d, 0xef, 0xa8, 0xbe, 0xca, 0x2b, 0xe9, 0xbd, 0x22, 0x30, 0xe1, 0xbe,
  0xb7, 0x6a, 0xaa, 0xbe, 0x31, 0x57, 0x7e, 0x3e, 0xcf, 0x5d, 0xc5, 0x3d,
  0x0f, 0x70, 0x61, 0x3d, 0xc2, 0xfb, 0x74, 0x3e, 0x95, 0x3c, 0x30, 0x3e,
  0x47, 0x0d, 0x0f, 0xbe, 0x76, 0xa4, 0x0a, 0x3e, 0xc5, 0x08, 0xc5, 0xbc,
  0x8d, 0x0a, 0x19, 0x3e, 0xd4, 0x84, 0xe2, 0xbd, 0xfb, 0xf9, 0xcf, 0xbd,
  0x82, 0x62, 0xe2, 0xbd, 0xb4, 0x12, 0x8e, 0xbd, 0x33, 0xdf, 0x0b, 0xbd,
  0x3f, 0x05, 0x36, 0xbe, 0x2d, 0xad, 0xc2, 0xbd, 0xef, 0x76, 0xe5, 0x3d,
  0x8b, 0xac, 0x94, 0x3c, 0x29, 0xd8, 0xaa, 0x3d, 0x3a, 0x53, 0x08, 0x3e,
  0xe5, 0x8d, 0x25, 0x3d, 0x9b, 0xa1, 0x9e, 0xbd, 0x9e, 0x29, 0x8f, 0xbd,
  0x59, 0xe9, 0xc2, 0x3e, 0x35, 0x8c, 0x71, 0x3e, 0x10, 0x6e, 0xf1, 0xbe,
  0x03, 0x1f, 0x8b, 0x3d, 0xca, 0x45, 0x74, 0xbe, 0xb3, 0x35, 0x98, 0x3c,
  0x18, 0xfa, 0xf7, 0xbe, 0xe2, 0x9c, 0xc1, 0xbe, 0xf6, 0x12, 0x9e, 0xbe,
  0x3f, 0xd8, 0x5b, 0x3e, 0xc4, 0x32, 0x83, 0xbc, 0xd3, 0xad, 0x7c, 0xbc,
  0x48, 0x7b, 0x9c, 0x3d, 0x4f, 0x17, 0x79, 0xbc, 0x11, 0xc5, 0xba, 0xbd,
  0x6c, 0x83, 0xc0, 0xbc, 0x83, 0x0a, 0x54, 0xbc, 0xbf, 0x97, 0xf6, 0xbd,
  0x1d, 0x08, 0xad, 0xbe, 0x20, 0xed, 0x8b, 0xbe, 0xa1, 0x2d, 0x41, 0xbe,
  0x6c, 0xfb, 0xf0, 0x3d, 0x81, 0xaf, 0x04, 0xbd, 0x12, 0x76, 0x3f, 0xbc,
  0xc9, 0x52, 0x19, 0x3e, 0xd0, 0x64, 0xa2, 0x3e, 0xc9, 0xbd, 0x7c, 0x3d,
  0x64, 0x9f, 0x34, 0x3e, 0x1a, 0xb7, 0x50, 0xbd, 0x32, 0x31, 0x0e, 0x3e,
  0x07, 0x90, 0xde, 0xbd, 0xe8, 0xea, 0x99, 0x3e, 0x66, 0xae, 0x9d, 0xbe,
  0x9a, 0xa2, 0xc6, 0x3c, 0x36, 0x6e, 0x19, 0x3c, 0xef, 0x6f, 0xd5, 0xbe,
  0x1a, 0xda, 0xb0, 0xbe, 0xcc, 0x6a, 0xbf, 0x3d, 0x17, 0x51, 0x9c, 0x3d,
  0xf3, 0xd6, 0x9d, 0x3d, 0x7e, 0x97, 0xf8, 0x3d, 0xd8, 0xed, 0x3f, 0x3e,
  0x23, 0xd6, 0xd5, 0x3e, 0x93, 0x21, 0xf1, 0x3c, 0x27, 0x2a, 0x23, 0x3e,
  0xf8, 0x78, 0x8a, 0x3e, 0x85, 0xf0, 0x3b, 0xbe, 0x13, 0x93, 0x17, 0x3e,
  0x07, 0x36, 0x1a, 0x3c, 0xbb, 0xf1, 0x3b, 0x3d, 0xce, 0xe5, 0x15, 0xbc,
  0x97, 0xb6, 0x6a, 0x3e, 0xaf, 0xfa, 0x46, 0xbe, 0xf5, 0x9f, 0x08, 0xbe,
  0xab, 0xf8, 0x8d, 0x3c, 0x99, 0x4f, 0x16, 0xbd, 0x04, 0x7e, 0xa7, 0x3e,
  0x38, 0x58, 0xe3, 0xbc, 0xd0, 0x16, 0xec, 0x3d, 0xcc, 0x32, 0x80, 0xbc,
  0x86, 0xe6, 0xc4, 0x3d, 0x6a, 0x4a, 0x6b, 0x3e, 0x66, 0xab, 0x66, 0x3d,
  0xb5, 0x70, 0x0c, 0x3d, 0xe3, 0x52, 0x4d, 0x3e, 0x38, 0x9e, 0x06, 0x3e,
  0x5e, 0xde, 0xbe, 0x3c, 0xad, 0xa0, 0xe3, 0x3d, 0xa1, 0x67, 0x54, 0xbd,
  0xde, 0xc4, 0x06, 0xbe, 0x89, 0x85, 0x1f, 0x3e, 0x9d, 0x92, 0x3c, 0xbd,
  0x56, 0x38, 0xc3, 0xbd, 0x7f, 0x7f, 0x49, 0x3e, 0x74, 0x7d, 0x06, 0x3e,
  0x80, 0x5c, 0x61, 0xbc, 0x24, 0xcd, 0x75, 0x3e, 0x65, 0x47, 0x48, 0x3e,
  0x45, 0x4b, 0x1a, 0xbe, 0xe6, 0x4b, 0x3d, 0xbe, 0x57, 0x7f, 0xdd, 0xbd,
  0xcc, 0x08, 0x0d, 0xbf, 0xf1, 0x97, 0x32, 0xbd, 0xe3, 0x92, 0x8d, 0xbe,
  0x83, 0xb0, 0x98, 0xbd, 0x16, 0x60, 0xe3, 0x3d, 0x54, 0x8b, 0x44, 0x3e,
  0x21, 0x6e, 0xf2, 0xbd, 0xc1, 0xbe, 0x18, 0xbd, 0x18, 0x5d, 0xa8, 0x3e,
  0x7d, 0x76, 0x9c, 0xbd, 0x73, 0xd1, 0x54, 0xbd, 0x15, 0x09, 0x88, 0x3e,
  0xf8, 0x98, 0x2a, 0xbe, 0x90, 0xb7, 0x28, 0xbe, 0xbb, 0x05, 0x12, 0xbd,
  0x26, 0x9d, 0xf1, 0xbc, 0x05, 0xf4, 0x2d, 0xbe, 0xe0, 0x66, 0x0c, 0x3e,
  0xd4, 0xb1, 0x54, 0x3d, 0x08, 0xdc, 0x49, 0x3d, 0x39, 0x47, 0x11, 0xbd,
  0x2d, 0xed, 0x53, 0x3c, 0x22, 0xc2, 0x38, 0xbd, 0x9d, 0xf3, 0x5d, 0xbd,
  0xbf, 0x03, 0x04, 0xbe, 0xf5, 0x52, 0x58, 0xbe, 0x64, 0x49, 0x9c, 0xbd,
  0x41, 0x34, 0x70, 0xbe, 0x4d, 0x61, 0x15, 0xbc, 0x4a, 0x49, 0x9d, 0x3d,
  0x5e, 0x82, 0x0b, 0xbe, 0xcf, 0x67, 0x83, 0xbe, 0x9e, 0xd6, 0x93, 0x3d,
  0xbe, 0x47, 0x5a, 0xbe, 0x90, 0x01, 0x55, 0x3c, 0x4b, 0x25, 0x2a, 0x3e,
  0xf2, 0xd7, 0x5e, 0xbe, 0x5e, 0xd0, 0xb7, 0xbd, 0xee, 0xf5, 0x65, 0xbe,
  0xd0, 0xac, 0x74, 0xbd, 0x6a, 0xcb, 0x85, 0x3c, 0xa3, 0x0f, 0x89, 0xbc,
  0x67, 0x93, 0x92, 0xbd, 0xb7, 0x53, 0x1f, 0xbe, 0xc3, 0xe1, 0x24, 0x3c,
  0x83, 0xfe, 0x52, 0x3e, 0x5d, 0x16, 0x60, 0xbe, 0x13, 0x15, 0xcc, 0x3c,
  0xdd, 0xf8, 0x5e, 0xba, 0x8a, 0x3d, 0x32, 0x3d, 0xd2, 0xb9, 0xb8, 0xbe,
  0x3d, 0xc4, 0x12, 0x3d, 0xc0, 0x64, 0x83, 0xbe, 0x1d, 0x3d, 0x9d, 0x3e,
  0xa1, 0x95, 0x92, 0xbe, 0x0f, 0x5b, 0x12, 0xbe, 0x15, 0x78, 0x14, 0xbe,
  0x2a, 0xb4, 0xd7, 0xbe, 0xc8, 0x33, 0x8a, 0xbd, 0x79, 0x22, 0x80, 0xbe,
  0x58, 0x3e, 0x26, 0xbd, 0xe2, 0x72, 0x8b, 0xbd, 0x5a, 0x6d, 0xa7, 0xbe,
  0x4c, 0xaf, 0xb5, 0xbd, 0x00, 0x29, 0xef, 0x3d, 0x1b, 0x11, 0x53, 0x3d,
  0x0e, 0x03, 0xf3, 0xbd, 0x85, 0x6d, 0x01, 0x3d, 0x60, 0x4c, 0xed, 0x3c,
  0x3b, 0xba, 0x28, 0x3d, 0xf5, 0xf8, 0x00, 0x3e, 0x3f, 0x2d, 0x42, 0xbe,
  0x3a, 0x52, 0x22, 0xbd, 0x7f, 0x7d, 0xcf, 0xbd, 0x69, 0xcf, 0x9a, 0x3c,
  0x39, 0x84, 0x7f, 0xbd, 0xe5, 0x04, 0xc6, 0x3d, 0x53, 0xbd, 0xe5, 0x3d,
  0x57, 0x6f, 0x06, 0xbe, 0x0d, 0x79, 0x0e, 0xbd, 0x44, 0x45, 0xb2, 0xbd,
  0xb3, 0xc5, 0xb4, 0xbd, 0xbd, 0xc9, 0x21, 0x3d, 0x1c, 0x42, 0x43, 0x3d,
  0x31, 0x10, 0x57, 0xbe, 0x6c, 0x44, 0x84, 0x3e, 0xcb, 0x51, 0x60, 0xbd,
  0xd4, 0x55, 0x0f, 0x3e, 0x00, 0x6f, 0x1b, 0x3e, 0x78, 0xfe, 0x90, 0xbd,
  0xf7, 0x6d, 0xd5, 0xbc, 0xbc, 0xb5, 0x25, 0xbe, 0xeb, 0x4e, 0xcc, 0x3c,
  0x59, 0x57, 0xab, 0xbd, 0x78, 0x73, 0x20, 0xbe, 0x71, 0x09, 0x79, 0xbd,
  0x6c, 0x13, 0x02, 0x3d, 0xac, 0xe9, 0x94, 0xbd, 0xa1, 0x84, 0x84, 0xbe,
  0x10, 0x73, 0xcb, 0x3d, 0xeb, 0x53, 0xcf, 0xbc, 0x7f, 0x72, 0x8b, 0x3e,
  0x9b, 0x8d, 0x3a, 0xbd, 0x98, 0x3f, 0x6d, 0xbe, 0x76, 0x16, 0x82, 0x3e,
  0x34, 0x12, 0xc4, 0xbd, 0x6c, 0x98, 0xbb, 0xbc, 0x3e, 0xcb, 0x07, 0x3e,
  0xb4, 0xfc, 0xc1, 0xbc, 0x06, 0xce, 0xbc, 0x3d, 0x6d, 0x61, 0x1e, 0xbe,
  0x3d, 0xe6, 0x24, 0xbe, 0xd7, 0x3f, 0x02, 0xbc, 0xc8, 0x8e, 0x93, 0x3d,
  0x95, 0x65, 0x16, 0xbe, 0x98, 0x0b, 0xd9, 0x3d, 0xb9, 0x78, 0xc3, 0xbd,
  0x98, 0x43, 0x94, 0x3e, 0x76, 0x7f, 0x21, 0xbe, 0xf4, 0x79, 0x04, 0xbe,
  0xf3, 0xfa, 0xcb, 0xbd, 0xbf, 0x38, 0x64, 0xbe, 0xa6, 0x47, 0x74, 0xbd,
  0x7f, 0x9d, 0xc7, 0x3c, 0xb7, 0x80, 0x61, 0xbe, 0x8b, 0x30, 0x83, 0xbd,
  0x88, 0xa3, 0x8a, 0xbe, 0xb1, 0xea, 0x59, 0x3d, 0x6e, 0x6f, 0xa4, 0x3d,
  0xbc, 0xcd, 0x95, 0x3c, 0xdf, 0x7c, 0xbe, 0x3d, 0x57, 0x9c, 0xa3, 0x3d,
  0x8f, 0xea, 0x82, 0xbe, 0x2a, 0xa7, 0x2b, 0xbb, 0xe3, 0x74, 0x15, 0xbd,
  0x4a, 0x0f, 0x5b, 0xbd, 0x8c, 0xda, 0x29, 0xbe, 0x78, 0x3f, 0xb0, 0xbc,
  0x20, 0x7b, 0x08, 0x3d, 0xd5, 0x41, 0xf2, 0xbd, 0x1e, 0x63, 0xb3, 0xbd,
  0x14, 0xb9, 0x64, 0xbd, 0x06, 0xf0, 0x8c, 0xbd, 0xad, 0x77, 0x23, 0x3e,
  0x0c, 0xb2, 0xa0, 0x3d, 0xeb, 0x27, 0xce, 0xbe, 0x81, 0x33, 0x86, 0xbd,
  0xca, 0x3d, 0x61, 0xbe, 0x58, 0x1d, 0x21, 0xbd, 0x29, 0x74, 0x9b, 0xbd,
  0x09, 0xb0, 0xa8, 0xbe, 0x5e, 0xae, 0x5a, 0xbd, 0xfd, 0xb1, 0x2f, 0x3e,
  0x21, 0x68, 0x1f, 0xbe, 0x3a, 0xf7, 0x88, 0x3e, 0xed, 0x84, 0x54, 0xbd,
  0x2d, 0xe1, 0xfc, 0xbd, 0x55, 0x3a, 0xd8, 0x3d, 0x76, 0xee, 0x0a, 0xbd,
  0xca, 0xbd, 0xfc, 0x3d, 0x44, 0xfa, 0x97, 0x3d, 0x0d, 0x26, 0x4d, 0xbe,
  0xae, 0x43, 0xda, 0xbd, 0x00, 0x39, 0xa3, 0xbe, 0xeb, 0xa2, 0x74, 0x3e,
  0x76, 0x2d, 0xab, 0xbe, 0xf3, 0x70, 0xd4, 0x3c, 0x8f, 0xf8, 0x93, 0xbd,
  0x7b, 0x5a, 0x0d, 0x3e, 0xa3, 0x47, 0x56, 0x3d, 0x11, 0x2a, 0xbd, 0x3d,
  0xa9, 0x95, 0x05, 0xbd, 0xd1, 0xf1, 0xc0, 0xbd, 0x14, 0xaa, 0x08, 0x3e,
  0xf7, 0x37, 0xd7, 0xbd, 0x40, 0x00, 0x09, 0xbd, 0x7b, 0xd4, 0xde, 0x3d,
  0x7a, 0x13, 0x0a, 0x3e, 0x0a, 0x10, 0x0d, 0xbe, 0x8c, 0x6c, 0xaa, 0xbd,
  0x24, 0xfc, 0x8c, 0x3e, 0xcc, 0xfa, 0x2a, 0x3d, 0xce, 0xe7, 0xc0, 0xb9,
  0x64, 0xca, 0xdf, 0xbd, 0xc6, 0x5d, 0x1a, 0x3e, 0x52, 0xbc, 0x18, 0x3d,
  0x20, 0xe6, 0xf6, 0xbd, 0xb8, 0x5f, 0xc8, 0x3d, 0xdb, 0x02, 0xae, 0xbe,
  0x7b, 0x53, 0xc8, 0xbd, 0xe9, 0x79, 0x4f, 0xbd, 0x3d, 0x32, 0x5d, 0x3d,
  0xb4, 0xaa, 0x69, 0xbc, 0x65, 0xd4, 0xe3, 0x3d, 0xcb, 0x3d, 0xdc, 0x3d,
  0x26, 0x0f, 0x82, 0x3d, 0x60, 0xd4, 0xd3, 0x3d, 0x55, 0x50, 0x0e, 0x3d,
  0xff, 0x0d, 0x08, 0x3b, 0x7b, 0x19, 0xc6, 0x3d, 0xe3, 0x3d, 0x41, 0x3e,
  0x11, 0x14, 0xaf, 0x3c, 0xcc, 0x9a, 0x84, 0xbe, 0x3e, 0x8b, 0x13, 0x3e,
  0xcb, 0x4e, 0x7c, 0xbe, 0x77, 0xfb, 0xec, 0x3d, 0x88, 0x51, 0xda, 0xbd,
  0x92, 0xf7, 0x9a, 0xbe, 0x42, 0xed, 0x0e, 0xbe, 0xc2, 0x46, 0x02, 0xbc,
  0xb1, 0x75, 0x36, 0x3e, 0x92, 0x60, 0x68, 0x3e, 0xcd, 0x10, 0x84, 0xbe,
  0x16, 0xbf, 0x2a, 0x3e, 0x23, 0x64, 0xb5, 0xbb, 0xd1, 0x38, 0x92, 0xbd,
  0x6d, 0x5a, 0x53, 0x3e, 0x0f, 0x63, 0x1e, 0xbe, 0x58, 0x8f, 0x00, 0xbe,
  0x90, 0x96, 0x84, 0x3e, 0x53, 0x32, 0xa6, 0xbc, 0x72, 0x11, 0xf1, 0xbd,
  0x42, 0x52, 0x6d, 0xbd, 0x8a, 0xb8, 0x05, 0xbe, 0x33, 0x85, 0x7a, 0xbe,
  0x68, 0x86, 0x5e, 0xbd, 0x49, 0x7c, 0x01, 0xbc, 0xf9, 0x98, 0x93, 0x3d,
  0xc8, 0x3a, 0x3b, 0x3c, 0x23, 0x3d, 0x32, 0x3e, 0x4c, 0x0a, 0xa4, 0x3c,
  0x20, 0x50, 0x59, 0xbd, 0x87, 0x14, 0xee, 0x3b, 0xd7, 0x6b, 0x50, 0xbe,
  0xf3, 0xf8, 0x53, 0xbe, 0x00, 0xc9, 0xc9, 0xbd, 0xa0, 0x16, 0x32, 0xbe,
  0xf5, 0x98, 0x52, 0x3c, 0xe1, 0xd8, 0x64, 0x3c, 0x93, 0x70, 0x87, 0xbe,
  0x43, 0xd2, 0xbd, 0xbe, 0x65, 0x04, 0xe4, 0xbd, 0xc0, 0xeb, 0x11, 0x3d,
  0xd2, 0x14, 0x85, 0x3d, 0xea, 0xc1, 0xff, 0xbc, 0x1f, 0x5b, 0x5e, 0xbd,
  0x50, 0x2a, 0xc0, 0x3c, 0xf0, 0xf2, 0x3c, 0x3d, 0x1c, 0xa6, 0x01, 0xbe,
  0x54, 0x54, 0x86, 0xbe, 0x18, 0xfb, 0x8e, 0xbe, 0xe8, 0x0e, 0xba, 0xbe,
  0x2a, 0xa2, 0xa8, 0xbc, 0xb4, 0xc8, 0x24, 0xbe, 0xf9, 0x59, 0xdb, 0xbc,
  0x61, 0xb1, 0x95, 0xbd, 0xca, 0x21, 0xdd, 0xbc, 0x92, 0x80, 0x32, 0xbe,
  0x66, 0x50, 0x4a, 0x3e, 0x38, 0xa6, 0x9a, 0x3d, 0x55, 0x6b, 0x7b, 0xbe,
  0xea, 0x4d, 0x4a, 0xbd, 0xe3, 0x3e, 0xfb, 0xbd, 0x7a, 0x97, 0x25, 0xbd,
  0xa4, 0xa3, 0x2f, 0x3d, 0x28, 0x8b, 0x41, 0xbe, 0xf1, 0x3e, 0x37, 0xbe,
  0x7e, 0xec, 0xd1, 0xbc, 0xed, 0x7c, 0x65, 0x3c, 0xa2, 0x60, 0x37, 0x3e,
  0x59, 0x4a, 0x73, 0xbe, 0x26, 0x2c, 0x2e, 0xbd, 0xac, 0xc8, 0x15, 0xbc,
  0x02, 0x85, 0x85, 0xbe, 0x60, 0xab, 0x25, 0xbe, 0xa9, 0xc0, 0xf1, 0xbd,
  0x70, 0x88, 0xc9, 0x3d, 0xb7, 0x65, 0x30, 0x3d, 0xb2, 0x5d, 0xd3, 0x3d,
  0xf3, 0x64, 0x17, 0x3e, 0x1a, 0xd0, 0xdd, 0x3c, 0x4d, 0x73, 0x4c, 0xbe,
  0x43, 0xd5, 0x25, 0x3d, 0x93, 0x04, 0x59, 0xbd, 0x66, 0xca, 0xdc, 0xbc,
  0x35, 0xe8, 0x84, 0xb8, 0x77, 0x29, 0x9f, 0xbd, 0xdc, 0xe2, 0xde, 0xbd,
  0xda, 0x10, 0x58, 0xbe, 0x96, 0x48, 0xc6, 0xbd, 0x8d, 0x83, 0x32, 0xbd,
  0x88, 0xe2, 0x0e, 0xbd, 0x95, 0xd3, 0x3d, 0xbc, 0x10, 0x19, 0x32, 0x3e,
  0xf3, 0x04, 0xc1, 0x3b, 0xcf, 0xf9, 0x37, 0xbd, 0xd6, 0xa0, 0x99, 0x3c,
  0x3a, 0xf9, 0x75, 0xbe, 0x01, 0xd2, 0xf6, 0xbd, 0x7d, 0x61, 0x45, 0xbe,
  0xac, 0x8d, 0xdb, 0xbc, 0xdb, 0x83, 0x27, 0x3c, 0xdb, 0xf3, 0xad, 0xbd,
  0xaf, 0xdb, 0x82, 0xbc, 0x2b, 0xb4, 0x02, 0xbe, 0xe2, 0x02, 0x15, 0xbe,
  0x1e, 0x1a, 0x1b, 0xbe, 0x9c, 0x50, 0x77, 0xbd, 0x92, 0x61, 0x21, 0x3d,
  0xfc, 0xee, 0x6a, 0xbe, 0x89, 0xdd, 0x2b, 0x3e, 0xaa, 0xf9, 0x1d, 0xbd,
  0x81, 0x36, 0x11, 0x3e, 0x45, 0xbd, 0x81, 0xbe, 0xa2, 0x00, 0x9b, 0x3c,
  0x0d, 0x7d, 0xd8, 0x3d, 0x4c, 0x3d, 0x45, 0xbe, 0x7e, 0x21, 0x52, 0xbd,
  0xa3, 0xe4, 0xc9, 0xbd, 0xaa, 0x61, 0x99, 0xbd, 0x83, 0x42, 0x3a, 0xbd,
  0x27, 0xee, 0x89, 0x3d, 0x77, 0xb0, 0x5d, 0xbe, 0xc8, 0x6b, 0xcf, 0xbd,
  0x8d, 0x30, 0x9c, 0xbe, 0x13, 0x1c, 0x25, 0x3e, 0x17, 0x84, 0xc3, 0x3d,
  0xf6, 0x74, 0xba, 0x3d, 0x08, 0xce, 0x20, 0xbe, 0xcf, 0x7e, 0xf4, 0xba,
  0x47, 0x2e, 0x13, 0xbe, 0xa7, 0x38, 0x01, 0xbe, 0x63, 0x1c, 0xbc, 0xbd,
  0xd6, 0xde, 0x48, 0xbd, 0x4d, 0x32, 0x40, 0xbe, 0x8a, 0x3c, 0xdf, 0x3d,
  0xc9, 0x12, 0x8c, 0xbd, 0xf7, 0x25, 0x3c, 0xbe, 0x67, 0xa7, 0xf7, 0x3d,
  0x31, 0x45, 0x37, 0x3d, 0x36, 0x26, 0x09, 0xbd, 0xe9, 0x75, 0xa3, 0x3d,
  0xa6, 0x5e, 0x24, 0xbe, 0x66, 0x8b, 0x83, 0x3d, 0x81, 0x55, 0xdb, 0xbc,
  0x08, 0xd9, 0x71, 0xbe, 0x34, 0x64, 0xae, 0xbd, 0xaa, 0xaf, 0x07, 0xbc,
  0xc0, 0x5f, 0xe7, 0x3c, 0xae, 0x42, 0x1a, 0x3d, 0x49, 0x7e, 0xa5, 0xbd,
  0xa1, 0x8f, 0x73, 0xbe, 0x63, 0x5e, 0x23, 0xbe, 0x23, 0xea, 0x2b, 0xbe,
  0xf1, 0x6a, 0xde, 0x3d, 0x3d, 0x3c, 0xa2, 0xbe, 0x4d, 0x54, 0x3d, 0xbe,
  0x9b, 0x75, 0x1f, 0xbe, 0xfb, 0x1c, 0xdc, 0xbd, 0x43, 0x13, 0xc1, 0x3c,
  0xf3, 0xab, 0x19, 0xbe, 0xbd, 0xc1, 0x17, 0x3c, 0x15, 0x70, 0xf2, 0x3d,
  0xbe, 0xcd, 0x57, 0xbe, 0x10, 0x67, 0x53, 0xbd, 0xe3, 0x10, 0x84, 0xbc,
  0xb8, 0xf6, 0xa5, 0xbd, 0x2f, 0x54, 0x8f, 0x3d, 0x9b, 0x2c, 0x13, 0x3d,
  0xde, 0x7b, 0x93, 0x3b, 0xfe, 0xbc, 0x3d, 0xbe, 0xfd, 0x7c, 0x04, 0x3d,
  0x10, 0x53, 0xf1, 0xbd, 0xda, 0x58, 0x25, 0x3e, 0x48, 0x5e, 0x76, 0xbd,
  0xcc, 0x3e, 0x13, 0xbe, 0x95, 0x6d, 0x05, 0x3e, 0x47, 0x14, 0xd7, 0xbd,
  0x92, 0x51, 0x73, 0xbb, 0x84, 0x75, 0xa1, 0xbd, 0x2d, 0x79, 0x76, 0x3b,
  0xc8, 0xe3, 0xd4, 0x3d, 0x69, 0x8c, 0x97, 0xbe, 0x63, 0xc3, 0xc2, 0x3d,
  0xbc, 0x04, 0x97, 0x3d, 0x49, 0xf2, 0x04, 0x3d, 0xc8, 0xf6, 0x30, 0x3c,
  0x9f, 0xb3, 0xd5, 0xbd, 0x35, 0x97, 0xb9, 0x3d, 0x7b, 0x79, 0x19, 0x3d,
  0xd5, 0x60, 0xca, 0x3d, 0x72, 0x1f, 0x27, 0xbe, 0x5f, 0x5a, 0x1c, 0x3e,
  0xd0, 0x8a, 0x22, 0xbe, 0x14, 0x98, 0x7f, 0x3d, 0x52, 0xdf, 0xc2, 0xbd,
  0xe3, 0x29, 0x61, 0xbd, 0xd5, 0xa2, 0xd3, 0x3d, 0xbd, 0xa4, 0x04, 0xbe,
  0x0c, 0x47, 0x0c, 0x3c, 0x47, 0x66, 0x3c, 0xbc, 0xcb, 0x4a, 0x96, 0x3c,
  0xe7, 0x13, 0x06, 0xbe, 0xed, 0x81, 0x0b, 0xbe, 0x01, 0xa5, 0xe1, 0x3d,
  0xc4, 0xff, 0x45, 0x3d, 0x75, 0x82, 0x77, 0x3e, 0x68, 0x93, 0x83, 0x3c,
  0xe0, 0x17, 0x12, 0x3e, 0x53, 0x80, 0x3f, 0xbd, 0x0a, 0xdb, 0x38, 0x3d,
  0xd6, 0xcc, 0x87, 0xbd, 0x3d, 0x5a, 0x2f, 0xbe, 0x20, 0x69, 0xae, 0x3d,
  0x2c, 0x42, 0x02, 0xbd, 0xb1, 0xef, 0xaa, 0xbd, 0x2a, 0xd3, 0x2c, 0x3d,
  0xa5, 0x2f, 0x90, 0xbb, 0x14, 0x00, 0xca, 0xbe, 0x33, 0x53, 0x11, 0xbc,
  0x5e, 0x79, 0x5a, 0x3e, 0x65, 0x79, 0xdf, 0xbb, 0xb0, 0xd4, 0x74, 0x3e,
  0x94, 0x40, 0x47, 0x3e, 0x93, 0xa3, 0x55, 0xbe, 0x82, 0x7e, 0xa8, 0xbd,
  0x96, 0x9a, 0x21, 0xbd, 0x2b, 0xa4, 0x4a, 0xbc, 0xbd, 0x61, 0x86, 0xbd,
  0x1a, 0xb5, 0x1c, 0xbe, 0x0f, 0xa6, 0x85, 0xbe, 0xab, 0x26, 0xa9, 0x3d,
  0x2d, 0x19, 0x06, 0x3e, 0xa6, 0xc7, 0x87, 0x3b, 0xc7, 0xb5, 0x52, 0xbe,
  0x48, 0x77, 0x42, 0xbd, 0x3a, 0xd6, 0x64, 0x3d, 0xc5, 0xa9, 0xd9, 0x3c,
  0xd3, 0xde, 0xbd, 0x3d, 0x4b, 0x34, 0x8a, 0xbe, 0x84, 0x58, 0x81, 0x3d,
  0x94, 0xd7, 0x39, 0xbe, 0x62, 0xd9, 0xea, 0x3c, 0x7b, 0x67, 0xee, 0x3b,
  0xb9, 0xfa, 0xf6, 0xbd, 0x1a, 0xeb, 0x3c, 0xbe, 0x18, 0x9d, 0xab, 0xbe,
  0x79, 0xd6, 0x99, 0x3c, 0xc6, 0xe0, 0xa4, 0x3d, 0xd2, 0x03, 0x81, 0x3c,
  0xa1, 0x0b, 0x87, 0xbe, 0x54, 0x53, 0x15, 0xbe, 0x9b, 0xd5, 0x14, 0x3d,
  0x0b, 0x5a, 0x1c, 0xbc, 0x28, 0xf3, 0x20, 0x3d, 0x17, 0x3f, 0x61, 0xbe,
  0x7f, 0x1d, 0x60, 0x3e, 0x11, 0x8d, 0x4c, 0xbe, 0x47, 0x93, 0x07, 0xbb,
  0xce, 0x87, 0x7f, 0x3c, 0xc3, 0xc1, 0x7a, 0xbe, 0x3f, 0x79, 0x02, 0xbe,
  0xbb, 0xf6, 0xda, 0xbc, 0x52, 0xe3, 0x32, 0xbc, 0x8a, 0x16, 0x24, 0xbc,
  0x48, 0xaf, 0x32, 0xbc, 0xf4, 0x48, 0xda, 0x3c, 0xd2, 0x22, 0xcd, 0x3d,
  0xd3, 0x1f, 0x3a, 0x3c, 0x1f, 0x13, 0xd1, 0x3c, 0x8c, 0x17, 0x78, 0xbd,
  0xc7, 0x4a, 0x7a, 0xbd, 0x47, 0xe8, 0xbe, 0x3a, 0x36, 0xef, 0xbf, 0x39,
  0x86, 0x36, 0x51, 0x3c, 0x7c, 0x6e, 0x6e, 0xbd, 0xe2, 0x24, 0x2c, 0xbc,
  0x18, 0x2c, 0xb4, 0xbd, 0x36, 0x27, 0x88, 0xbe, 0x5d, 0x21, 0x96, 0xbd,
  0xde, 0xc4, 0x52, 0xbe, 0x2a, 0x80, 0xa3, 0xbd, 0x12, 0xe4, 0x98, 0xbd,
  0x72, 0x3e, 0xc5, 0xbe, 0x96, 0x85, 0x14, 0xbe, 0xeb, 0x08, 0x55, 0x3e,
  0x9e, 0x81, 0xba, 0xbc, 0xbc, 0xd6, 0x14, 0xbd, 0x12, 0x8f, 0xe2, 0xbd,
  0x7b, 0x4a, 0x22, 0xbe, 0xb6, 0xf0, 0x45, 0x3c, 0x92, 0x16, 0x6d, 0xbc,
  0xfb, 0x9a, 0xb4, 0xbd, 0x55, 0x04, 0x39, 0x3d, 0x09, 0x3f, 0x03, 0x3e,
  0xe8, 0x00, 0xef, 0xbc, 0x94, 0xcd, 0x02, 0xbe, 0x2a, 0x3b, 0xf1, 0xbd,
  0xdb, 0x8b, 0x3b, 0x3e, 0x37, 0x77, 0x1a, 0xbb, 0x34, 0x98, 0x2b, 0x3d,
  0x5b, 0x95, 0x4b, 0x3e, 0x62, 0xcb, 0xa3, 0xbd, 0x8e, 0x27, 0x52, 0xbd,
  0xd1, 0xc0, 0xe5, 0xbd, 0x5e, 0xbb, 0x18, 0xbe, 0xcd, 0xff, 0xfe, 0xbd,
  0x85, 0x92, 0x63, 0x3d, 0xcd, 0xdb, 0xa3, 0x3d, 0x43, 0xc7, 0x5b, 0xbe,
  0x14, 0x34, 0x0a, 0xbe, 0x1d, 0xae, 0x16, 0x3d, 0x74, 0x93, 0x48, 0x3c,
  0x83, 0x9c, 0x12, 0x3e, 0xbf, 0x12, 0x0c, 0xbe, 0x8b, 0x6b, 0xa3, 0x3d,
  0xc8, 0x15, 0x5a, 0xbe, 0x5d, 0x81, 0x8d, 0x3e, 0xab, 0xca, 0x1b, 0xbe,
  0xbb, 0xda, 0xad, 0x3d, 0x61, 0x7b, 0x52, 0xbe, 0x48, 0x02, 0x5d, 0xbe,
  0x26, 0xe7, 0x7a, 0xbe, 0x5e, 0xa5, 0x2d, 0x3e, 0x8d, 0x2e, 0x1e, 0xbe,
  0x8e, 0x3a, 0xf7, 0xbd, 0xa6, 0x5d, 0x44, 0xbc, 0x89, 0x9b, 0xb7, 0x3d,
  0xc0, 0x22, 0x96, 0xbe, 0x67, 0x4f, 0x95, 0xbc, 0x69, 0x60, 0xf6, 0x3c,
  0x24, 0xee, 0xbe, 0xbd, 0x2e, 0x07, 0x4c, 0x3e, 0xb2, 0x51, 0xca, 0xbd,
  0x03, 0x72, 0x6f, 0x3e, 0xe8, 0xc9, 0xdf, 0xbd, 0xf5, 0x7c, 0x6d, 0x3e,
  0xe0, 0x62, 0xba, 0xbe, 0xf9, 0x91, 0x8f, 0xbe, 0x51, 0xe2, 0x50, 0x3e,
  0x81, 0xa3, 0x9c, 0xbd, 0x47, 0x6f, 0x27, 0x3b, 0x4c, 0xda, 0x3c, 0x3d,
  0x5f, 0x11, 0x07, 0x3d, 0x12, 0xe3, 0x96, 0xbd, 0xe1, 0x2d, 0x1d, 0xbd,
  0x59, 0x73, 0x6e, 0x3d, 0xd0, 0x4c, 0x40, 0xba, 0x3d, 0xdf, 0x96, 0x3d,
  0x63, 0x49, 0x12, 0x3e, 0xbb, 0xce, 0x4d, 0x3d, 0x9d, 0xcb, 0x03, 0xbe,
  0x9f, 0x1b, 0x12, 0x3e, 0xb4, 0x98, 0x00, 0xbc, 0x9f, 0xe3, 0x4f, 0xbd,
  0xe1, 0x93, 0x4c, 0x3e, 0xf3, 0x74, 0xb2, 0xbd, 0x82, 0x6f, 0x3f, 0xbe,
  0xd1, 0x36, 0x92, 0x3d, 0x43, 0xdc, 0x17, 0xbd, 0xbe, 0xae, 0xc8, 0xbd,
  0xc6, 0x2a, 0x83, 0x3c, 0x03, 0x19, 0xc2, 0xb9, 0xa1, 0x98, 0xc1, 0xbd,
  0x53, 0xa4, 0xfc, 0xbd, 0x07, 0x2a, 0x65, 0x3d, 0xc4, 0x4b, 0x31, 0xbe,
  0xef, 0x15, 0x5d, 0x3c, 0xb8, 0xde, 0xc0, 0xbd, 0xab, 0x36, 0x59, 0xbe,
  0x0e, 0x41, 0x32, 0x3d, 0xf9, 0xd2, 0x55, 0x3c, 0x0c, 0xeb, 0x11, 0xbe,
  0xff, 0x84, 0x08, 0x3e, 0x8b, 0x04, 0x43, 0xbe, 0xa9, 0x8d, 0x67, 0xbe,
  0x15, 0x59, 0x1f, 0xbe, 0xb1, 0x2d, 0x58, 0xbe, 0x87, 0xba, 0x10, 0x3e,
  0xdb, 0x1c, 0xf9, 0x3d, 0x1e, 0x56, 0x86, 0xbe, 0x96, 0x7d, 0x7a, 0xbe,
  0xa1, 0x37, 0x49, 0xbe, 0xbd, 0x60, 0x71, 0xbc, 0xda, 0x21, 0x90, 0xb9,
  0x19, 0xd9, 0x13, 0xbe, 0x50, 0xc4, 0x23, 0xbd, 0x28, 0x62, 0x06, 0xbe,
  0x9d, 0xe0, 0x74, 0xbe, 0xc1, 0xff, 0x40, 0x3d, 0xa4, 0x1b, 0xa3, 0xbd,
  0x19, 0xfd, 0xb0, 0xbe, 0xf8, 0xa0, 0x0a, 0xbc, 0x18, 0x79, 0x56, 0x3d,
  0x70, 0xf5, 0x06, 0xbf, 0x41, 0x55, 0x84, 0x3e, 0x6e, 0x8c, 0xb8, 0xbe,
  0x4f, 0xcf, 0xec, 0x3c, 0xee, 0x3a, 0xf2, 0xbc, 0x83, 0x73, 0x64, 0xbe,
  0xed, 0x6f, 0xae, 0xbe, 0x86, 0x54, 0x8a, 0xbe, 0x56, 0x84, 0xff, 0xbe,
  0x6f, 0x4f, 0x5d, 0xbe, 0xc0, 0x86, 0x89, 0x3c, 0x25, 0x0d, 0x85, 0x3d,
  0x92, 0x04, 0xc1, 0xbd, 0xe4, 0x75, 0x5d, 0xbe, 0x79, 0x5b, 0x56, 0xbd,
  0x4e, 0xa5, 0x14, 0x3d, 0x63, 0xc8, 0xe2, 0x3d, 0x80, 0x5e, 0xa1, 0x3e,
  0xfd, 0x7d, 0x09, 0xbe, 0x1d, 0xeb, 0xcf, 0x3d, 0x82, 0x43, 0x8b, 0x3e,
  0xa3, 0x0f, 0x92, 0x3e, 0x42, 0x75, 0xfc, 0xbd, 0xd7, 0x3b, 0x05, 0xbe,
  0x85, 0xc2, 0x85, 0xbe, 0xae, 0xce, 0x9b, 0xbd, 0xb5, 0xd2, 0xb6, 0xbd,
  0x35, 0x67, 0xa6, 0x3e, 0x5c, 0x7b, 0xfc, 0x3d, 0xff, 0x83, 0x76, 0xbc,
  0x02, 0xa6, 0x52, 0xbe, 0x07, 0xfe, 0xdb, 0x3d, 0xef, 0xad, 0xd1, 0xbd,
  0x0e, 0xe6, 0xe4, 0xbd, 0xef, 0x0e, 0x4b, 0xbc, 0x1e, 0xae, 0x04, 0xbe,
  0x96, 0xf5, 0xe8, 0x3e, 0xf2, 0x44, 0xa9, 0x3d, 0x02, 0x5a, 0x91, 0xba,
  0x59, 0x53, 0x0a, 0xbe, 0xd8, 0x37, 0x58, 0xbe, 0xe2, 0x51, 0x87, 0x3d,
  0x8a, 0x3b, 0x00, 0xbe, 0xf8, 0x88, 0x4a, 0xbd, 0xdf, 0x4f, 0x25, 0x3d,
  0x93, 0x5e, 0xdc, 0xbd, 0x88, 0x37, 0x93, 0x3d, 0x0f, 0x54, 0xef, 0x3d,
  0x84, 0x7a, 0xb5, 0xbe, 0xa3, 0x26, 0x39, 0xbe, 0x91, 0x07, 0x8e, 0xbc,
  0x32, 0x40, 0x40, 0x3d, 0x52, 0x01, 0xcc, 0x3e, 0x39, 0x48, 0x8d, 0x3e,
  0x1b, 0x4a, 0x4f, 0x3d, 0x18, 0x02, 0x18, 0x3e, 0xe1, 0x6e, 0x68, 0xbe,
  0x74, 0x81, 0x03, 0x3e, 0x21, 0x46, 0x0c, 0x3e, 0x01, 0xd4, 0x93, 0xbe,
  0x19, 0x11, 0x0e, 0xbe, 0x0f, 0x5a, 0xfe, 0xbd, 0x1a, 0x97, 0x87, 0xbe,
  0xb4, 0x6a, 0x06, 0x3e, 0xf6, 0x95, 0xe2, 0xbe, 0xe3, 0xda, 0xdf, 0xbd,
  0xc9, 0xf7, 0xf1, 0xbc, 0xee, 0x2f, 0x18, 0x3c, 0xd7, 0xfe, 0x5a, 0x3e,
  0x92, 0x55, 0xa8, 0xbe, 0xbf, 0xab, 0x86, 0xbc, 0x9c, 0x52, 0xe8, 0xbd,
  0xef, 0x5f, 0xea, 0xbd, 0xf6, 0x88, 0x5b, 0x3d, 0xd7, 0x0c, 0x26, 0xbe,
  0x2f, 0x48, 0xb5, 0xbe, 0x7d, 0x0b, 0x42, 0xbe, 0xd7, 0xe3, 0xa4, 0xbd,
  0x1e, 0x3a, 0xe5, 0xbd, 0x54, 0x96, 0x98, 0x3d, 0xe7, 0xf4, 0x61, 0xbe,
  0xa5, 0xe7, 0x30, 0xbc, 0xdd, 0x96, 0x1b, 0xbe, 0x93, 0x66, 0x81, 0x3e,
  0x16, 0xe0, 0x28, 0x3e, 0x65, 0x71, 0x7c, 0xbe, 0x9a, 0x6d, 0x8a, 0x3e,
  0xd5, 0xb7, 0xce, 0xbd, 0x52, 0x9f, 0x76, 0xbe, 0x4c, 0xdf, 0x00, 0x3e,
  0x0f, 0xaf, 0x04, 0xbe, 0x88, 0xe1, 0x79, 0xbe, 0x3e, 0xbc, 0x32, 0xbe,
  0x4e, 0x34, 0x74, 0xbe, 0xeb, 0xe9, 0x92, 0xbe, 0x11, 0xfe, 0x3f, 0x3e,
  0xe5, 0x74, 0x07, 0xbe, 0x21, 0x68, 0x55, 0x3e, 0x5d, 0x29, 0x13, 0x3d,
  0x6f, 0x13, 0x45, 0x3e, 0xf8, 0x13, 0x39, 0x3d, 0x5c, 0x0d, 0x36, 0xbe,
  0x41, 0xc7, 0x2d, 0x3e, 0x25, 0x15, 0x24, 0xbe, 0x8c, 0x15, 0x4f, 0x3d,
  0x69, 0x05, 0xb6, 0xbc, 0x2d, 0x2f, 0x97, 0xbd, 0xc2, 0xec, 0x68, 0x3d,
  0xac, 0x65, 0xa7, 0xbd, 0xc4, 0x2a, 0x5c, 0xbd, 0x82, 0x39, 0xdd, 0x3d,
  0x7d, 0x04, 0x90, 0xbd, 0xa5, 0x5f, 0x53, 0xbe, 0xea, 0xa5, 0x19, 0x3e,
  0x36, 0x29, 0x51, 0xbe, 0xdc, 0x93, 0x08, 0x3c, 0xa9, 0x83, 0xc5, 0x3c,
  0x7b, 0x13, 0xfd, 0xbd, 0xcd, 0x32, 0x26, 0xbe, 0xf1, 0xdf, 0x24, 0xbd,
  0x9c, 0x73, 0x7a, 0xbe, 0x80, 0xfc, 0x79, 0x3c, 0xb8, 0xa5, 0x23, 0xbe,
  0x64, 0xe3, 0x19, 0xbd, 0x1a, 0xcc, 0xda, 0xbd, 0x8e, 0xe0, 0xce, 0xbd,
  0xf7, 0xb0, 0xf4, 0x3d, 0xb3, 0x08, 0x6a, 0x3d, 0xed, 0xfc, 0xc8, 0x3e,
  0x03, 0x65, 0xa4, 0xbd, 0x3d, 0xf2, 0xd9, 0xbd, 0x5b, 0xe2, 0x28, 0x3e,
  0xe9, 0x69, 0x6e, 0x3e, 0x2d, 0x55, 0x38, 0xbd, 0xde, 0xf9, 0x04, 0xbe,
  0x46, 0x0d, 0x8e, 0xbd, 0xff, 0x18, 0x2e, 0xbe, 0x97, 0x7a, 0xcf, 0x3c,
  0xe4, 0x07, 0x9e, 0xbd, 0x33, 0x7c, 0xaf, 0x3e, 0x46, 0x5f, 0xec, 0xbb,
  0x6c, 0x26, 0x06, 0x3d, 0x6d, 0xab, 0x8c, 0xbd, 0x1c, 0x02, 0x2f, 0x3e,
  0x10, 0x09, 0xe4, 0xbd, 0x1c, 0x61, 0x41, 0x3d, 0xc9, 0xb9, 0x8a, 0xbc,
  0x61, 0xee, 0x26, 0x3e, 0x23, 0x53, 0xb2, 0x3e, 0xa8, 0x7d, 0x17, 0xbd,
  0x08, 0x6d, 0xbf, 0xbd, 0x0e, 0xec, 0xcf, 0xbd, 0xb2, 0xe9, 0x21, 0xbd,
  0xd0, 0x8a, 0x2f, 0x3e, 0x9b, 0x12, 0x18, 0x3d, 0x99, 0xfb, 0x8d, 0xbd,
  0x02, 0x86, 0x70, 0xbc, 0x8d, 0xd8, 0x64, 0x3d, 0x03, 0x96, 0x95, 0xbd,
  0xd9, 0xff, 0x47, 0x3e, 0xce, 0x82, 0x21, 0x3b, 0x80, 0x86, 0x12, 0x3d,
  0x4c, 0x85, 0x05, 0x3d, 0x3c, 0xf2, 0x12, 0xbd, 0xd0, 0xd1, 0xce, 0x3e,
  0xe2, 0x0a, 0x24, 0x3e, 0x46, 0xdc, 0x66, 0xbd, 0xf2, 0x68, 0x95, 0xbd,
  0x16, 0x8a, 0x08, 0xbe, 0x1d, 0xf4, 0xab, 0x3e, 0xcb, 0x02, 0x8c, 0x3d,
  0x64, 0x6c, 0x74, 0xbe, 0x53, 0xc4, 0x18, 0xbe, 0xd0, 0xf9, 0x18, 0x3e,
  0xb5, 0xba, 0x55, 0x3d, 0xd9, 0x06, 0x13, 0x3c, 0x6d, 0xf0, 0x7f, 0xbe,
  0x88, 0xd4, 0x95, 0xbd, 0x46, 0xc8, 0xf0, 0xbd, 0x34, 0x15, 0x04, 0x3b,
  0xc0, 0xc7, 0x98, 0x3e, 0xb5, 0x14, 0x51, 0xbe, 0xab, 0x5e, 0x28, 0x3e,
  0x3e, 0x74, 0x72, 0x3d, 0x3a, 0x55, 0x23, 0xbe, 0x8b, 0xfe, 0x65, 0x3d,
  0xcc, 0x68, 0x1a, 0xbe, 0x01, 0xec, 0x8a, 0xbe, 0x1c, 0x07, 0x38, 0xbe,
  0x7f, 0xab, 0x56, 0xbe, 0x40, 0x6b, 0xe3, 0x3d, 0xd4, 0x90, 0x01, 0xbe,
  0xd3, 0x51, 0x5f, 0x3e, 0xa9, 0xf9, 0x1e, 0xbe, 0x24, 0x92, 0xa0, 0xbe,
  0xad, 0x56, 0x5d, 0x3d, 0xd5, 0x99, 0x0d, 0x3e, 0x62, 0xa3, 0x31, 0xbd,
  0x02, 0x05, 0x51, 0xbd, 0xd0, 0x48, 0x30, 0xbd, 0x9b, 0xda, 0x25, 0xbe,
  0xa6, 0x03, 0x8b, 0x3e, 0xba, 0x8c, 0xc3, 0xbd, 0x59, 0x0f, 0x64, 0xbe,
  0xe9, 0x0c, 0x7e, 0xbe, 0x76, 0x85, 0x39, 0xbe, 0xae, 0x6c, 0x46, 0x3e,
  0x4f, 0x38, 0x11, 0xbe, 0xc1, 0x7d, 0x1b, 0x3e, 0x06, 0x95, 0x3d, 0xbe,
  0xe0, 0xec, 0x63, 0xbd, 0x8a, 0x2c, 0x09, 0x3e, 0xb6, 0x05, 0xdd, 0x3d,
  0x99, 0x03, 0x3c, 0xbc, 0xb6, 0xc3, 0xba, 0xbe, 0xbc, 0x40, 0xf7, 0x3d,
  0x93, 0xc3, 0xd6, 0xbe, 0x02, 0x56, 0x69, 0xbc, 0xda, 0x75, 0x2a, 0xbe,
  0x91, 0x44, 0x0f, 0xbd, 0x7b, 0xba, 0x2c, 0xbd, 0xf4, 0xe1, 0x12, 0xbd,
  0x34, 0xec, 0x12, 0x3e, 0xaa, 0x15, 0xdd, 0xbe, 0x3e, 0xa6, 0x18, 0xbe,
  0xa9, 0x77, 0x18, 0x3e, 0x63, 0xac, 0xe3, 0x3d, 0xa9, 0x30, 0x32, 0x3d,
  0x71, 0xdd, 0xd9, 0xbd, 0x5d, 0x76, 0xaa, 0xbd, 0xe9, 0x3d, 0x59, 0x3e,
  0x65, 0x91, 0x59, 0xbe, 0x70, 0x89, 0x31, 0x3e, 0x23, 0x45, 0xf4, 0xbb,
  0xb0, 0x60, 0x0a, 0xbe, 0x9b, 0x12, 0xe9, 0x3c, 0x27, 0xbd, 0xa3, 0x3d,
  0x2a, 0x07, 0xc1, 0x3d, 0xef, 0xa7, 0x2e, 0xbd, 0x4d, 0x1a, 0x73, 0xbe,
  0x00, 0xe2, 0x15, 0xbe, 0x0f, 0x41, 0x45, 0xbe, 0x79, 0xc1, 0xe5, 0x3d,
  0xdd, 0x51, 0x39, 0x3d, 0x74, 0xbb, 0x55, 0x3b, 0xca, 0x38, 0xf8, 0xbd,
  0x5a, 0x52, 0xd5, 0x3e, 0x8e, 0x7b, 0x85, 0xbc, 0xcc, 0x8d, 0xbe, 0x3d,
  0x3a, 0xd8, 0xfa, 0xbd, 0xba, 0x49, 0x43, 0xbe, 0x73, 0xc2, 0x73, 0xbe,
  0x69, 0x15, 0x0e, 0xbe, 0x44, 0x1d, 0x13, 0xbe, 0x65, 0x0c, 0xd6, 0x3d,
  0x16, 0xc3, 0xd8, 0x3d, 0xd0, 0x89, 0x5b, 0xbe, 0x3f, 0x28, 0x8d, 0xbe,
  0xd4, 0xc2, 0x4e, 0x3e, 0x02, 0xe6, 0x1f, 0xbd, 0x74, 0xe6, 0x2f, 0x3e,
  0x24, 0xf1, 0x4c, 0x3e, 0x34, 0x95, 0x2f, 0x3f, 0xa5, 0xa8, 0x88, 0x3e,
  0xde, 0x9a, 0xfc, 0xbc, 0x0c, 0xcb, 0x33, 0x3e, 0xfd, 0xa1, 0xb9, 0xbd,
  0xf5, 0xe8, 0x61, 0xbe, 0x36, 0xa1, 0x7e, 0x3c, 0x7d, 0x5e, 0xb4, 0xbd,
  0x40, 0xcb, 0x53, 0x3e, 0x7a, 0x82, 0x68, 0x3d, 0x90, 0x32, 0x59, 0x3b,
  0xc8, 0x61, 0x17, 0xbe, 0xc3, 0x4e, 0x96, 0xbd, 0x98, 0xc9, 0xc1, 0x3c,
  0x63, 0xe4, 0x59, 0x3d, 0xbd, 0xec, 0x01, 0x3f, 0xfd, 0x09, 0xb2, 0x3e,
  0x5a, 0x9e, 0xd6, 0x3d, 0xef, 0x00, 0x90, 0xbc, 0xc7, 0x1b, 0x23, 0x3e,
  0xc3, 0xab, 0x88, 0x3d, 0x48, 0x14, 0x25, 0xbe, 0x84, 0xeb, 0x30, 0xbe,
  0x08, 0x23, 0x09, 0x3e, 0x8b, 0x1b, 0xc8, 0x3d, 0xfc, 0x20, 0x70, 0x3d,
  0x6a, 0x37, 0xba, 0x3d, 0xd0, 0x35, 0x8c, 0xbd, 0xae, 0x50, 0xae, 0xbd,
  0x48, 0xfb, 0xfc, 0xbb, 0x94, 0x69, 0x06, 0xbe, 0x3e, 0x6c, 0x00, 0x3e,
  0xae, 0x55, 0x96, 0x3e, 0x96, 0x7f, 0x8c, 0xbd, 0xbe, 0xbb, 0xb6, 0x3c,
  0x02, 0x25, 0xc1, 0xbc, 0x8c, 0x13, 0x25, 0xba, 0x14, 0x29, 0x89, 0xbe,
  0x00, 0xb8, 0xa1, 0x3d, 0xf5, 0x7e, 0x79, 0x3e, 0x81, 0xb4, 0x50, 0x3e,
  0x1e, 0x71, 0xb7, 0xbd, 0x61, 0x8e, 0xd1, 0x3d, 0x35, 0x6c, 0x54, 0xbe,
  0x07, 0x71, 0xc8, 0x3d, 0xaa, 0xf2, 0x55, 0xbd, 0xa4, 0xec, 0x8b, 0xbe,
  0x0e, 0xb6, 0x1f, 0x3d, 0xaa, 0x6e, 0xe1, 0x3e, 0xd0, 0x73, 0xe6, 0xbc,
  0xf3, 0xee, 0x7e, 0x3c, 0xd1, 0x2a, 0xe6, 0x3b, 0x43, 0xec, 0x35, 0xbd,
  0x7d, 0x04, 0xa4, 0x3d, 0x8a, 0xee, 0x4c, 0xbe, 0xcf, 0x3c, 0xce, 0xbe,
  0x67, 0x9d, 0x35, 0xbf, 0x73, 0x8a, 0x5a, 0x3d, 0xba, 0xf0, 0xd6, 0xbe,
  0x31, 0x12, 0x7c, 0xbe, 0xba, 0x6c, 0x11, 0x3e, 0x5b, 0x8f, 0xaa, 0xbe,
  0xbf, 0x4f, 0x25, 0xbc, 0x5d, 0xa8, 0x45, 0xbe, 0xaf, 0x59, 0x25, 0x3e,
  0xd4, 0xca, 0x94, 0xbe, 0x89, 0xd3, 0x38, 0xbe, 0x76, 0x2d, 0xaf, 0xbe,
  0xc9, 0x2a, 0xc1, 0xbe, 0xc9, 0xc4, 0xf1, 0xbb, 0x93, 0xa2, 0x6d, 0xbe,
  0x0f, 0xe8, 0xcb, 0xbd, 0x84, 0xd4, 0x8b, 0x3d, 0x50, 0x5a, 0x36, 0xbc,
  0x9c, 0xce, 0xc1, 0xbe, 0x19, 0x70, 0xd4, 0x3d, 0x50, 0x1c, 0xcf, 0xbe,
  0x64, 0x23, 0x41, 0x3d, 0x13, 0x58, 0xdc, 0xbe, 0x4d, 0xad, 0xb3, 0xbd,
  0x96, 0xdc, 0x0c, 0xbd, 0xab, 0x6e, 0x15, 0xbe, 0x25, 0xf9, 0x66, 0xbe,
  0x49, 0x48, 0x5d, 0xbe, 0xe7, 0xdf, 0x6b, 0x3d, 0x26, 0x54, 0x14, 0x3e,
  0x26, 0xea, 0x7a, 0xbe, 0x68, 0xec, 0x31, 0xbd, 0x3d, 0xcb, 0x37, 0x3e,
  0x35, 0x9b, 0x72, 0x3d, 0x6a, 0x7c, 0x85, 0xbd, 0xff, 0x42, 0xb2, 0x3e,
  0x20, 0xb3, 0x5f, 0xbe, 0xf4, 0xf5, 0x89, 0xbd, 0x68, 0x2e, 0x2e, 0xbc,
  0x6d, 0x1f, 0x0b, 0xbe, 0x82, 0x86, 0x8a, 0xbd, 0x13, 0xd9, 0xe8, 0xbe,
  0xa7, 0xfd, 0x85, 0xbe, 0xbf, 0x8d, 0xaa, 0xbe, 0xfe, 0x36, 0xeb, 0xbc,
  0x52, 0xf7, 0x84, 0x3e, 0x45, 0x2d, 0x0f, 0xbe, 0x3d, 0x11, 0x34, 0x3c,
  0x8d, 0x9a, 0x46, 0x3d, 0x44, 0x9c, 0x74, 0x3c, 0xcc, 0x88, 0xbf, 0xbe,
  0x33, 0x42, 0x4c, 0xbe, 0xeb, 0xeb, 0x76, 0xbe, 0xae, 0xe3, 0x56, 0x3d,
  0xda, 0x40, 0x85, 0xbc, 0x28, 0xd0, 0x9d, 0xbd, 0x73, 0x07, 0x95, 0x3d,
  0xb0, 0x76, 0xa7, 0xbd, 0x41, 0x00, 0x81, 0xbe, 0x34, 0xcf, 0x79, 0xbd,
  0x64, 0xe7, 0xc4, 0x3c, 0x66, 0x53, 0x4f, 0x3e, 0x0b, 0x0f, 0xf2, 0xbd,
  0x28, 0x03, 0x54, 0x3d, 0xa4, 0x3b, 0xf8, 0x3d, 0xa2, 0x7c, 0x38, 0x3c,
  0x13, 0x79, 0x0f, 0xbe, 0x4d, 0x92, 0x39, 0xbe, 0x43, 0x60, 0x94, 0x3d,
  0x7f, 0xc1, 0x98, 0x3b, 0x07, 0x97, 0x07, 0xbe, 0x9d, 0xf6, 0x33, 0xbd,
  0x1f, 0x45, 0x46, 0x3e, 0xa7, 0x59, 0x42, 0xbe, 0x33, 0x75, 0x78, 0xbe,
  0x88, 0xe2, 0xb3, 0xbd, 0x07, 0x79, 0xc8, 0xbd, 0x10, 0x75, 0xe1, 0xbc,
  0x62, 0xf9, 0xa3, 0xbe, 0x57, 0xcc, 0x08, 0xbd, 0x83, 0x0b, 0xc2, 0x3d,
  0x40, 0x84, 0xfc, 0x3d, 0x20, 0x73, 0x05, 0x3d, 0xb7, 0xbc, 0x85, 0xbc,
  0xd9, 0x9d, 0x3c, 0x3d, 0x9f, 0x0d, 0x41, 0x3e, 0xc3, 0x95, 0x2c, 0xbe,
  0x59, 0xfc, 0xee, 0xbd, 0xd8, 0xe3, 0xf4, 0x3d, 0xe9, 0x58, 0x2e, 0xbe,
  0x25, 0xcd, 0x1a, 0xbe, 0xcc, 0x15, 0x82, 0xbd, 0xbc, 0x70, 0x8f, 0x3c,
  0x0c, 0x60, 0x63, 0xbe, 0x40, 0x5b, 0xc8, 0xbe, 0x94, 0x40, 0x54, 0xbe,
  0xb1, 0x9e, 0xcd, 0x3d, 0xc3, 0xf0, 0xea, 0x3d, 0x21, 0x40, 0xc9, 0xbe,
  0x1d, 0xc2, 0xc9, 0xbe, 0x2e, 0xdf, 0x8a, 0x3c, 0x9f, 0x3d, 0xe2, 0x3d,
  0x9e, 0x77, 0x2d, 0xbe, 0x65, 0x57, 0x89, 0xbd, 0x7f, 0xe1, 0x25, 0x3d,
  0x0a, 0xf7, 0x58, 0xbe, 0x39, 0x24, 0x6e, 0xbe, 0x53, 0x37, 0xb8, 0x3c,
  0x31, 0x3d, 0x0a, 0xbe, 0xb7, 0x92, 0x11, 0xbe, 0xd2, 0xac, 0x21, 0xbe,
  0x2e, 0x6b, 0x23, 0x3d, 0x0d, 0xa1, 0xa5, 0x3b, 0x32, 0xdb, 0xbb, 0x3d,
  0xb4, 0xee, 0x48, 0x3c, 0x48, 0xe4, 0x2e, 0x3d, 0x18, 0x10, 0x2a, 0xbd,
  0x98, 0x0d, 0x1b, 0x3e, 0xb7, 0x47, 0xd3, 0xbd, 0x64, 0x97, 0xc9, 0xbd,
  0x00, 0x66, 0x81, 0xbd, 0x53, 0x8b, 0x4b, 0xbd, 0x5e, 0x42, 0xa5, 0x3d,
  0x57, 0xa7, 0x02, 0xbe, 0xd5, 0xc3, 0x92, 0xbd, 0xde, 0xe7, 0x26, 0xbe,
  0xca, 0xeb, 0x85, 0xbe, 0xeb, 0x61, 0x2c, 0xbe, 0x5a, 0xaf, 0xec, 0xbc,
  0xa7, 0x8d, 0x8a, 0xbd, 0xb1, 0x24, 0x3b, 0xbd, 0xfd, 0x29, 0x83, 0xbd,
  0x88, 0x1e, 0x44, 0xbe, 0xd3, 0xaf, 0x76, 0x3c, 0x84, 0x47, 0x09, 0x3d,
  0x2f, 0x38, 0x17, 0xbd, 0x21, 0x45, 0x42, 0xbe, 0xc3, 0xb5, 0x17, 0xbd,
  0x6d, 0x34, 0x37, 0x3d, 0xcd, 0x70, 0x3a, 0xbe, 0xa5, 0xf6, 0xd3, 0xbd,
  0xac, 0x4c, 0x83, 0x3e, 0x9f, 0x33, 0x5f, 0xbe, 0xd3, 0x4f, 0xc0, 0xbe,
  0xb7, 0x5d, 0x09, 0x3e, 0x1a, 0xff, 0xad, 0xbd, 0xb1, 0x2e, 0x0a, 0x3e,
  0x20, 0xc7, 0x16, 0xbe, 0x73, 0x36, 0xd0, 0xbe, 0x74, 0x1a, 0xd0, 0xbc,
  0x91, 0x9b, 0x06, 0xbd, 0x65, 0xff, 0xd1, 0xbb, 0x09, 0x66, 0x1c, 0xbd,
  0x5e, 0x38, 0xa6, 0xbd, 0xe1, 0xbe, 0x6f, 0xbd, 0x08, 0x38, 0x10, 0x3d,
  0x9d, 0xca, 0x33, 0xbd, 0xc8, 0x60, 0x6c, 0x3e, 0xfc, 0x11, 0x4d, 0xbd,
  0xcf, 0x67, 0x66, 0xbd, 0x0d, 0x53, 0x09, 0x3e, 0xf3, 0x6a, 0xfe, 0xbc,
  0xbb, 0x2b, 0x29, 0x3e, 0x87, 0xea, 0x52, 0x3d, 0x00, 0xd5, 0xe8, 0xbe,
  0x6e, 0xb1, 0x89, 0x3d, 0xc2, 0x02, 0x0f, 0xbe, 0x1c, 0xe0, 0x98, 0x3d,
  0xce, 0xee, 0x12, 0xbd, 0x84, 0x45, 0x83, 0xbe, 0xd7, 0xd2, 0x06, 0xbd,
  0x40, 0xba, 0x39, 0xbe, 0xb3, 0xe6, 0x12, 0x3d, 0x4c, 0xf5, 0x88, 0x3d,
  0x22, 0x75, 0x5a, 0xbe, 0x01, 0x32, 0x86, 0x3d, 0xa8, 0x93, 0x62, 0xbd,
  0xe6, 0xcf, 0x28, 0xbe, 0x63, 0xc6, 0x54, 0x3e, 0xb5, 0xf8, 0x52, 0x3d,
  0x9f, 0x3e, 0x49, 0xbe, 0x64, 0x90, 0x25, 0xbd, 0x80, 0x03, 0x53, 0xbe,
  0xc4, 0x5b, 0x84, 0xbe, 0xb0, 0xed, 0x86, 0xbd, 0x5a, 0x54, 0x8b, 0xbd,
  0x00, 0x7a, 0x3a, 0xbd, 0xf0, 0x81, 0xbe, 0xbd, 0xa4, 0xc5, 0x57, 0xbe,
  0x49, 0x24, 0xee, 0x3e, 0x79, 0x00, 0xb7, 0x3d, 0x46, 0x98, 0x06, 0x3e,
  0x9b, 0xdf, 0xa8, 0x3d, 0xb3, 0x9c, 0x29, 0xbd, 0x1f, 0x23, 0x15, 0x3e,
  0x83, 0x8e, 0x2b, 0xbd, 0x73, 0x93, 0xc7, 0x3d, 0xf1, 0xcd, 0x5a, 0xbe,
  0x75, 0x37, 0xf9, 0xbb, 0x23, 0xab, 0x7b, 0x3e, 0x9b, 0x1f, 0xa6, 0x3d,
  0x12, 0x14, 0xf4, 0xbb, 0x80, 0x5d, 0x16, 0x3d, 0xdd, 0xe4, 0x71, 0xbd,
  0xdf, 0x3a, 0x6d, 0xbc, 0xb8, 0x84, 0x17, 0x3e, 0x42, 0x4b, 0x17, 0x3c,
  0x38, 0x2c, 0x90, 0x3b, 0xce, 0x2e, 0x3b, 0xbe, 0x75, 0x2a, 0xf3, 0x3c,
  0xe8, 0x4f, 0x91, 0x3d, 0xf9, 0x98, 0xe8, 0xbd, 0xd1, 0xda, 0x8d, 0x3e,
  0xce, 0xdf, 0x18, 0xbe, 0x56, 0x16, 0xb0, 0x3c, 0x65, 0x0e, 0x2f, 0x3e,
  0x66, 0x51, 0xa2, 0x3e, 0x3d, 0x99, 0x16, 0xbd, 0xab, 0x81, 0x9c, 0x3d,
  0x00, 0x40, 0x69, 0xbe, 0x5a, 0xd1, 0x87, 0xbc, 0x2d, 0x6e, 0x84, 0x3e,
  0xd5, 0x26, 0x00, 0x3b, 0x03, 0xfe, 0x50, 0xbd, 0x47, 0x9a, 0x37, 0xbe,
  0x76, 0x72, 0x42, 0x3c, 0xe0, 0x40, 0xa8, 0xbe, 0xaa, 0x2e, 0x5b, 0xbe,
  0x18, 0xf9, 0x8a, 0x3e, 0x1e, 0x88, 0xea, 0xbe, 0x97, 0x09, 0x6b, 0x3d,
  0x1e, 0xdf, 0x81, 0x3d, 0x59, 0xe0, 0xac, 0x3d, 0xe4, 0xe6, 0xb4, 0xbb,
  0xb8, 0x80, 0xca, 0xbd, 0xa7, 0x53, 0x72, 0xbd, 0xb7, 0x4a, 0x1b, 0xbe,
  0x21, 0x09, 0x41, 0xbc, 0x1a, 0xc5, 0x94, 0xbd, 0xd6, 0x3f, 0xf9, 0x3d,
  0x70, 0x15, 0x2e, 0x3d, 0x02, 0xc7, 0x88, 0xbd, 0x4e, 0x5d, 0x6e, 0xbd,
  0x65, 0x14, 0xb2, 0x3d, 0x99, 0x5a, 0x01, 0xbe, 0xd3, 0x94, 0xe2, 0x3c,
  0x1d, 0xc1, 0xfa, 0xbe, 0xc6, 0xd4, 0x15, 0xbe, 0xae, 0x34, 0x09, 0x3e,
  0xa1, 0xb7, 0x6a, 0xbd, 0x17, 0x0a, 0x03, 0x3d, 0xad, 0xd2, 0xb0, 0xbd,
  0xc6, 0xe0, 0x05, 0x3d, 0xf9, 0x66, 0x8a, 0x3d, 0xe9, 0x7e, 0x36, 0xbe,
  0x11, 0x0d, 0xdb, 0xbc, 0x92, 0x88, 0xee, 0x3c, 0xac, 0x0b, 0x9b, 0x3d,
  0xd0, 0x51, 0xf8, 0xbe, 0x90, 0xcf, 0xa8, 0xbd, 0xb6, 0x9a, 0x1a, 0x3d,
  0x1a, 0x17, 0x3f, 0x3d, 0x19, 0xd8, 0x8b, 0xbe, 0x6f, 0x15, 0xdf, 0x3c,
  0xb1, 0x7b, 0x05, 0x3e, 0x97, 0xee, 0xc0, 0xbd, 0xc8, 0x7c, 0x45, 0x3c,
  0x39, 0x34, 0x5a, 0xbe, 0xaa, 0xef, 0xcf, 0xbd, 0xb2, 0x53, 0xd0, 0xbd,
  0x36, 0x37, 0x93, 0xbd, 0x4d, 0xf9, 0xa9, 0xbc, 0xed, 0xb9, 0x9d, 0x3c,
  0xd8, 0x33, 0x12, 0x3d, 0x35, 0x85, 0x0d, 0xbf, 0x56, 0x82, 0xce, 0xbd,
  0xb8, 0x19, 0x90, 0x3e, 0x9a, 0xf3, 0x2a, 0x3d, 0xb7, 0xd4, 0xa7, 0xbc,
  0x14, 0xbe, 0xec, 0x3d, 0x04, 0xe9, 0xae, 0xbc, 0x5d, 0x04, 0x94, 0x3d,
  0xd5, 0x1c, 0xad, 0x3d, 0xa9, 0x92, 0x2d, 0xbe, 0x2f, 0x24, 0xec, 0x3a,
  0xc5, 0x7d, 0xc8, 0xbd, 0x18, 0x7d, 0x89, 0x3c, 0xbc, 0x88, 0x80, 0xbc,
  0x90, 0x67, 0xc0, 0x3d, 0xef, 0xcb, 0xf3, 0x3c, 0x55, 0xf4, 0x22, 0xbf,
  0xec, 0xc2, 0x00, 0xbe, 0xe9, 0xde, 0x05, 0x3e, 0x0d, 0xd3, 0x4a, 0x3d,
  0xdb, 0x74, 0xce, 0xbd, 0x1e, 0x78, 0x3a, 0x3e, 0x7c, 0xf2, 0x0e, 0xbe,
  0x01, 0x3c, 0x92, 0xbd, 0x28, 0xf5, 0x05, 0x3d, 0x72, 0x1e, 0x6a, 0xbe,
  0xd3, 0xfe, 0x30, 0x3d, 0x71, 0x2b, 0x06, 0xbe, 0xc3, 0xda, 0xac, 0xbd,
  0xa2, 0x5e, 0xd8, 0x3c, 0x8f, 0x03, 0xf2, 0x3a, 0x22, 0xac, 0x0d, 0x3d,
  0xb9, 0xd4, 0xe5, 0xbe, 0x56, 0xa3, 0x28, 0xbd, 0x18, 0x2b, 0x17, 0x3e,
  0x78, 0x60, 0xbf, 0x3d, 0xd4, 0x3b, 0xd4, 0xbc, 0xad, 0x9a, 0x61, 0x3d,
  0x79, 0x01, 0x4f, 0x3d, 0xe5, 0x8b, 0x12, 0xbe, 0xb6, 0xcc, 0x7f, 0x3d,
  0x87, 0xb4, 0x18, 0xbe, 0x57, 0x5a, 0xd7, 0x3b, 0x49, 0xa2, 0xc4, 0xbd,
  0xba, 0xc8, 0xfa, 0xbc, 0x61, 0x0b, 0xb4, 0x3c, 0x69, 0x84, 0x4a, 0x3d,
  0x03, 0xa7, 0x96, 0xbd, 0x39, 0x0d, 0xef, 0xbe, 0x99, 0xea, 0x96, 0xbd,
  0xb2, 0xbf, 0xd9, 0x3d, 0x30, 0x2a, 0xe7, 0xbc, 0x0b, 0x94, 0xd6, 0xbd,
  0x4f, 0x94, 0x47, 0xbc, 0x65, 0x49, 0x61, 0x3e, 0x6b, 0xc4, 0x73, 0xbd,
  0xbf, 0x98, 0xa3, 0x3d, 0x9f, 0xaa, 0x7a, 0xbd, 0x43, 0x0b, 0x60, 0xbd,
  0x34, 0x7a, 0xb7, 0xbd, 0xea, 0xb8, 0xc8, 0xbc, 0xf8, 0x49, 0x10, 0x3b,
  0xfc, 0x8b, 0x8a, 0xbb, 0x40, 0x80, 0x74, 0xbc, 0xa4, 0xb7, 0x8b, 0x3c,
  0x06, 0xde, 0x4a, 0x3d, 0x4d, 0x49, 0x51, 0x3c, 0xbe, 0xc3, 0xee, 0x3a,
  0xd2, 0x25, 0xb8, 0xbc, 0xe5, 0x11, 0xca, 0xbc, 0xd5, 0x22, 0x2a, 0x3d,
  0xe5, 0xaf, 0xc9, 0xbd, 0x6c, 0xde, 0x80, 0x3d, 0xeb, 0x4f, 0x6a, 0xbd,
  0x59, 0x4c, 0x0f, 0xbc, 0x62, 0xfd, 0xff, 0xff, 0x10, 0x00, 0x00, 0x00,
  0x07, 0x00, 0x00, 0x00, 0x14, 0x00, 0x00, 0x00, 0x2c, 0x00, 0x00, 0x00,
  0x02, 0x00, 0x00, 0x00, 0x10, 0x00, 0x00, 0x00, 0x70, 0x00, 0x00, 0x00,
  0x17, 0x00, 0x00, 0x00, 0x73, 0x65, 0x71, 0x75, 0x65, 0x6e, 0x74, 0x69,
  0x61, 0x6c, 0x2f, 0x64, 0x65, 0x6e, 0x73, 0x65, 0x2f, 0x4d, 0x61, 0x74,
  0x4d, 0x75, 0x6c, 0x00, 0xcc, 0xfc, 0xff, 0xff, 0xd6, 0xfd, 0xff, 0xff,
  0x04, 0x00, 0x00, 0x00, 0x08, 0x00, 0x00, 0x00, 0xff, 0xff, 0xff, 0xff,
  0x70, 0x00, 0x00, 0x00, 0x00, 0x00, 0x0e, 0x00, 0x18, 0x00, 0x08, 0x00,
  0x07, 0x00, 0x0c, 0x00, 0x10, 0x00, 0x14, 0x00, 0x0e, 0x00, 0x00, 0x00,
  0x00, 0x00, 0x00, 0x02, 0x10, 0x00, 0x00, 0x00, 0x06, 0x00, 0x00, 0x00,
  0x10, 0x00, 0x00, 0x00, 0x2c, 0x00, 0x00, 0x00, 0x01, 0x00, 0x00, 0x00,
  0x02, 0x00, 0x00, 0x00, 0x18, 0x00, 0x00, 0x00, 0x73, 0x65, 0x71, 0x75,
  0x65, 0x6e, 0x74, 0x69, 0x61, 0x6c, 0x2f, 0x66, 0x6c, 0x61, 0x74, 0x74,
  0x65, 0x6e, 0x2f, 0x43, 0x6f, 0x6e, 0x73, 0x74, 0x00, 0x00, 0x00, 0x00,
  0x34, 0xfd, 0xff, 0xff, 0x3e, 0xfe, 0xff, 0xff, 0x04, 0x00, 0x00, 0x00,
  0x10, 0x00, 0x00, 0x00, 0xfa, 0xff, 0xbe, 0xbf, 0xdb, 0x10, 0x69, 0x40,
  0x5e, 0xcb, 0x3c, 0xc0, 0xe1, 0xc7, 0x38, 0xbc, 0x26, 0xfe, 0xff, 0xff,
  0x10, 0x00, 0x00, 0x00, 0x05, 0x00, 0x00, 0x00, 0x10, 0x00, 0x00, 0x00,
  0x44, 0x00, 0x00, 0x00, 0x01, 0x00, 0x00, 0x00, 0x04, 0x00, 0x00, 0x00,
  0x32, 0x00, 0x00, 0x00, 0x73, 0x65, 0x71, 0x75, 0x65, 0x6e, 0x74, 0x69,
  0x61, 0x6c, 0x2f, 0x64, 0x65, 0x6e, 0x73, 0x65, 0x5f, 0x31, 0x2f, 0x42,
  0x69, 0x61, 0x73, 0x41, 0x64, 0x64, 0x2f, 0x52, 0x65, 0x61, 0x64, 0x56,
  0x61, 0x72, 0x69, 0x61, 0x62, 0x6c, 0x65, 0x4f, 0x70, 0x2f, 0x72, 0x65,
  0x73, 0x6f, 0x75, 0x72, 0x63, 0x65, 0x00, 0x00, 0xa8, 0xfd, 0xff, 0xff,
  0xb2, 0xfe, 0xff, 0xff, 0x04, 0x00, 0x00, 0x00, 0x40, 0x00, 0x00, 0x00,
  0xec, 0x0e, 0xba, 0x40, 0x34, 0x01, 0x1e, 0x40, 0x57, 0x89, 0x62, 0x3f,
  0x29, 0x32, 0xa5, 0xbd, 0x93, 0xa4, 0x77, 0xbe, 0x03, 0x33, 0x3e, 0x40,
  0xf8, 0xe5, 0xa8, 0xbe, 0x75, 0xd5, 0xac, 0xbe, 0x20, 0x18, 0x9d, 0x40,
  0x34, 0x0c, 0x6e, 0xbe, 0x71, 0x4c, 0x3b, 0x40, 0x44, 0xdc, 0xc4, 0x3f,
  0xb9, 0x63, 0x7e, 0x3d, 0xa6, 0xb1, 0x84, 0x40, 0x7c, 0xad, 0x4c, 0xbf,
  0xbd, 0x84, 0x46, 0x40, 0xca, 0xfe, 0xff, 0xff, 0x10, 0x00, 0x00, 0x00,
  0x04, 0x00, 0x00, 0x00, 0x10, 0x00, 0x00, 0x00, 0x44, 0x00, 0x00, 0x00,
  0x01, 0x00, 0x00, 0x00, 0x10, 0x00, 0x00, 0x00, 0x30, 0x00, 0x00, 0x00,
  0x73, 0x65, 0x71, 0x75, 0x65, 0x6e, 0x74, 0x69, 0x61, 0x6c, 0x2f, 0x64,
  0x65, 0x6e, 0x73, 0x65, 0x2f, 0x42, 0x69, 0x61, 0x73, 0x41, 0x64, 0x64,
  0x2f, 0x52, 0x65, 0x61, 0x64, 0x56, 0x61, 0x72, 0x69, 0x61, 0x62, 0x6c,
  0x65, 0x4f, 0x70, 0x2f, 0x72, 0x65, 0x73, 0x6f, 0x75, 0x72, 0x63, 0x65,
  0x00, 0x00, 0x00, 0x00, 0x4c, 0xfe, 0xff, 0xff, 0x56, 0xff, 0xff, 0xff,
  0x04, 0x00, 0x00, 0x00, 0x40, 0x00, 0x00, 0x00, 0x94, 0xf7, 0x2a, 0xbe,
  0x65, 0x84, 0x90, 0x40, 0x11, 0x99, 0xc7, 0xbf, 0x1a, 0x54, 0x74, 0x40,
  0x04, 0x3c, 0xed, 0xbd, 0x4e, 0x22, 0x25, 0x3f, 0x0d, 0xdb, 0x72, 0x40,
  0xd0, 0x60, 0x35, 0xbc, 0x8a, 0x5c, 0x8f, 0x3c, 0xd3, 0x1a, 0xf7, 0xbf,
  0xd8, 0x5c, 0xac, 0xbf, 0x33, 0x67, 0x70, 0xbf, 0x6f, 0x9c, 0x00, 0xc0,
  0xb1, 0xe3, 0x75, 0xbe, 0xd9, 0x5a, 0xb5, 0xbf, 0xf0, 0x1b, 0xf8, 0xbf,
  0x6e, 0xff, 0xff, 0xff, 0x10, 0x00, 0x00, 0x00, 0x03, 0x00, 0x00, 0x00,
  0x10, 0x00, 0x00, 0x00, 0x48, 0x00, 0x00, 0x00, 0x01, 0x00, 0x00, 0x00,
  0x10, 0x00, 0x00, 0x00, 0x33, 0x00, 0x00, 0x00, 0x73, 0x65, 0x71, 0x75,
  0x65, 0x6e, 0x74, 0x69, 0x61, 0x6c, 0x2f, 0x63, 0x6f, 0x6e, 0x76, 0x32,
  0x64, 0x5f, 0x31, 0x2f, 0x42, 0x69, 0x61, 0x73, 0x41, 0x64, 0x64, 0x2f,
  0x52, 0x65, 0x61, 0x64, 0x56, 0x61, 0x72, 0x69, 0x61, 0x62, 0x6c, 0x65,
  0x4f, 0x70, 0x2f, 0x72, 0x65, 0x73, 0x6f, 0x75, 0x72, 0x63, 0x65, 0x00,
  0x04, 0x00, 0x06, 0x00, 0x04, 0x00, 0x00, 0x00, 0x00, 0x00, 0x06, 0x00,
  0x08, 0x00, 0x04, 0x00, 0x06, 0x00, 0x00, 0x00, 0x04, 0x00, 0x00, 0x00,
  0x20, 0x00, 0x00, 0x00, 0x53, 0x7a, 0x9e, 0xbf, 0xc8, 0x60, 0x13, 0xc0,
  0xaf, 0xf0, 0x4d, 0xbf, 0xa7, 0x3c, 0x0a, 0xc0, 0x69, 0x10, 0x51, 0xbf,
  0x6d, 0xef, 0x59, 0xc0, 0xde, 0xf0, 0xca, 0xbf, 0x50, 0xe1, 0x23, 0xc0,
  0x00, 0x00, 0x0e, 0x00, 0x14, 0x00, 0x04, 0x00, 0x00, 0x00, 0x08, 0x00,
  0x0c, 0x00, 0x10, 0x00, 0x0e, 0x00, 0x00, 0x00, 0x10, 0x00, 0x00, 0x00,
  0x02, 0x00, 0x00, 0x00, 0x10, 0x00, 0x00, 0x00, 0x44, 0x00, 0x00, 0x00,
  0x01, 0x00, 0x00, 0x00, 0x08, 0x00, 0x00, 0x00, 0x31, 0x00, 0x00, 0x00,
  0x73, 0x65, 0x71, 0x75, 0x65, 0x6e, 0x74, 0x69, 0x61, 0x6c, 0x2f, 0x63,
  0x6f, 0x6e, 0x76, 0x32, 0x64, 0x2f, 0x42, 0x69, 0x61, 0x73, 0x41, 0x64,
  0x64, 0x2f, 0x52, 0x65, 0x61, 0x64, 0x56, 0x61, 0x72, 0x69, 0x61, 0x62,
  0x6c, 0x65, 0x4f, 0x70, 0x2f, 0x72, 0x65, 0x73, 0x6f, 0x75, 0x72, 0x63,
  0x65, 0x00, 0x00, 0x00, 0x90, 0xff, 0xff, 0xff, 0x14, 0x00, 0x18, 0x00,
  0x04, 0x00, 0x00, 0x00, 0x08, 0x00, 0x0c, 0x00, 0x10, 0x00, 0x00, 0x00,
  0x00, 0x00, 0x14, 0x00, 0x14, 0x00, 0x00, 0x00, 0x14, 0x00, 0x00, 0x00,
  0x01, 0x00, 0x00, 0x00, 0x20, 0x00, 0x00, 0x00, 0x44, 0x00, 0x00, 0x00,
  0x2c, 0x00, 0x00, 0x00, 0x04, 0x00, 0x00, 0x00, 0x01, 0x00, 0x00, 0x00,
  0x40, 0x00, 0x00, 0x00, 0x03, 0x00, 0x00, 0x00, 0x01, 0x00, 0x00, 0x00,
  0x0c, 0x00, 0x00, 0x00, 0x63, 0x6f, 0x6e, 0x76, 0x32, 0x64, 0x5f, 0x69,
  0x6e, 0x70, 0x75, 0x74, 0x00, 0x00, 0x00, 0x00, 0x04, 0x00, 0x00, 0x00,
  0xff, 0xff, 0xff, 0xff, 0x40, 0x00, 0x00, 0x00, 0x03, 0x00, 0x00, 0x00,
  0x01, 0x00, 0x00, 0x00, 0xfc, 0xff, 0xff, 0xff, 0x04, 0x00, 0x04, 0x00,
  0x04, 0x00, 0x00, 0x00
};

unsigned int model_tflite_len = 13120;// Fill the int in `src/model.cc` here